/**
  ******************************************************************************
  * @file    network_data_params.c
  * @author  AST Embedded Analytics Research Platform
  * @date    Wed Nov 23 20:05:01 2022
  * @brief   AI Tool Automatic Code Generator for Embedded NN computing
  ******************************************************************************
  * Copyright (c) 2022 STMicroelectronics.
  * All rights reserved.
  *
  * This software is licensed under terms that can be found in the LICENSE file
  * in the root directory of this software component.
  * If no LICENSE file comes with this software, it is provided AS-IS.
  ******************************************************************************
  */

#include "network_data_params.h"


/**  Activations Section  ****************************************************/
ai_handle g_network_activations_table[1 + 2] = {
  AI_HANDLE_PTR(AI_MAGIC_MARKER),
  AI_HANDLE_PTR(NULL),
  AI_HANDLE_PTR(AI_MAGIC_MARKER),
};




/**  Weights Section  ********************************************************/
AI_ALIGNED(32)
const ai_u64 s_network_weights_array_u64[56841] = {
  0xbf276da6bf514cbcU, 0xbedda189bf09d960U, 0xbe78798cbeabe63dU, 0xbd92df65be1f4372U,
  0x3db42486bb24b8edU, 0x3e8c99ac3e38c4b1U, 0x3ef149573ebd9381U, 0x3f60e4253f1a405cU,
  0x8888888888888888U, 0x8888888888888888U, 0x8888888888888888U, 0x8888888888888888U,
  0x8888888888888888U, 0x8888888888888888U, 0x8888888888888888U, 0x8888888888888888U,
  0x8888888888888888U, 0x8888888888888888U, 0x8888888888888888U, 0x8888888888888888U,
  0x8888888888888888U, 0x8888888888888888U, 0x8888888888888888U, 0x8888888888888888U,
  0x8888888888888888U, 0x8888888888888888U, 0x8888888888888888U, 0x8888888888888888U,
  0x8888888888888888U, 0x8888888888888888U, 0x8888888888888888U, 0x8888888888888888U,
  0x8888888888888888U, 0x8888888888888888U, 0x8888888888888888U, 0x8888888888888888U,
  0x8888888888888888U, 0x8888888888888888U, 0x8888888888888888U, 0x8888888888888888U,
  0x8888888888888888U, 0x8888888888888888U, 0x8888888888888888U, 0x8888888888888888U,
  0x8888888888888888U, 0x8888888888888888U, 0x8888888888888888U, 0x8888888888888888U,
  0x8888888888888888U, 0x8888888888888888U, 0x8888888888888888U, 0x8888888888888888U,
  0x8888888888888888U, 0x8888888888888888U, 0x8888888888888888U, 0x8888888888888888U,
  0x8888888888888888U, 0x8888888888888888U, 0x8888888888888888U, 0x8888888888888888U,
  0x8888888888888888U, 0x8888888888888888U, 0x8888888888888888U, 0x8888888888888888U,
  0x8888888888888888U, 0x8888888888888888U, 0x8888888888888888U, 0x8888888888888888U,
  0x8888888888888888U, 0x8888888888888888U, 0x8888888888888888U, 0x8888888888888888U,
  0x8888888888888888U, 0x8888888888888888U, 0x8888888888888888U, 0x8888888888888888U,
  0x8888888888888888U, 0x8888888888888888U, 0x8888888888888888U, 0x8888888888888888U,
  0x8888888888888888U, 0x8888888888888888U, 0x8888888888888888U, 0x8888888888888888U,
  0x8888888888888888U, 0x8888888888888888U, 0x8888888888888888U, 0x8888888888888888U,
  0x8888888888888888U, 0x8888888888888888U, 0x8888888888888888U, 0x8888888888888888U,
  0x8888888888888888U, 0x8888888888888888U, 0x8888888888888888U, 0x8888888888888888U,
  0x8888888888888888U, 0x8888888888888888U, 0x8888888888888888U, 0x8888888888888888U,
  0x8888888888888888U, 0x8888888888888888U, 0x8888888888888888U, 0x8888888888888888U,
  0x8888888888888888U, 0x8888888888888888U, 0x8888888888888888U, 0x8888888888888888U,
  0x8888888888888888U, 0x8888888888888888U, 0x8888888888888888U, 0x8888888888888888U,
  0x8888888888888888U, 0x8888888888888888U, 0x8888888888888888U, 0x8888888888888888U,
  0x8888888888888888U, 0x8888888888888888U, 0x8888888888888888U, 0x8888888888888888U,
  0x8888888888888888U, 0x8888888888888888U, 0x8888888888888888U, 0x8888888888888888U,
  0x8888888888888888U, 0x8888888888888888U, 0x8888888888888888U, 0x8888888888888888U,
  0x8888888888888888U, 0x8888888888888888U, 0x8888888888888888U, 0x8888888888888888U,
  0x8888888888888888U, 0x8888888888888888U, 0x8888888888888888U, 0x8888888888888888U,
  0x8888888888888888U, 0x8888888888888888U, 0x8888888888888888U, 0x8888888888888888U,
  0x8888888888888888U, 0x8888888888888888U, 0x8888888888888888U, 0x8888888888888888U,
  0x8888888888888888U, 0x8888888888888888U, 0x8888888888888888U, 0x8888888888888888U,
  0x8888888888888888U, 0x8888888888888888U, 0x8888888888888888U, 0x8888888888888888U,
  0x8888888888888888U, 0x8888888888888888U, 0x8888888888888888U, 0x8888888888888888U,
  0x8888888888888888U, 0x8888888888888888U, 0x8888888888888888U, 0x8888888888888888U,
  0x8888888888888888U, 0x8888888888888888U, 0x8888888888888888U, 0x8888888888888888U,
  0x8888888888888888U, 0x8888888888888888U, 0x8888888888888888U, 0x8888888888888888U,
  0x8888888888888888U, 0x8888888888888888U, 0x8888888888888888U, 0x8888888888888888U,
  0x8888888888888888U, 0x8888888888888888U, 0x8888888888888888U, 0x8888888888888888U,
  0x8888888888888888U, 0x8888888888888888U, 0x8888888888888888U, 0x8888888888888888U,
  0x8888888888888888U, 0x8888888888888888U, 0x8888888888888888U, 0x8888888888888888U,
  0x8888888888888888U, 0x8888888888888888U, 0x8888888888888888U, 0x8888888888888888U,
  0x8888888888888888U, 0x8888888888888888U, 0x8888888888888888U, 0x8888888888888888U,
  0x8888888888888888U, 0x8888888888888888U, 0x8888888888888888U, 0x8888888888888888U,
  0x8888888888888888U, 0x8888888888888888U, 0x8888888888888888U, 0x8888888888888888U,
  0x8888888888888888U, 0x8888888888888888U, 0x8888888888888888U, 0x8888888888888888U,
  0x8888888888888888U, 0x8888888888888888U, 0x8888888888888888U, 0x8888888888888888U,
  0x8888888888888888U, 0x8888888888888888U, 0x8888888888888888U, 0x8888888888888888U,
  0x8888888888888888U, 0x8888888888888888U, 0x8888888888888888U, 0x8888888888888888U,
  0x8888888888888888U, 0x8888888888888888U, 0x8888888888888888U, 0x8888888888888888U,
  0x8888888888888888U, 0x8888888888888888U, 0x8888888888888888U, 0x8888888888888888U,
  0x8888888888888888U, 0x8888888888888888U, 0x8888888888888888U, 0x8888888888888888U,
  0x8888888888888888U, 0x8888888888888888U, 0x8888888888888888U, 0x8888888888888888U,
  0x8888888888888888U, 0x8888888888888888U, 0x8888888888888888U, 0x8888888888888888U,
  0x8888888888888888U, 0x8888888888888888U, 0x8888888888888888U, 0x8888888888888888U,
  0x8888888888888888U, 0x8888888888888888U, 0x8888888888888888U, 0x8888888888888888U,
  0x8888888888888888U, 0x8888888888888888U, 0x8888888888888888U, 0x8888888888888888U,
  0x8888888888888888U, 0x8888888888888888U, 0x8888888888888888U, 0x8888888888888888U,
  0x8888888888888888U, 0x8888888888888888U, 0x8888888888888888U, 0x8888888888888888U,
  0x8888888888888888U, 0x8888888888888888U, 0x8888888888888888U, 0x8888888888888888U,
  0x8888888888888888U, 0x8888888888888888U, 0x8888888888888888U, 0x8888888888888888U,
  0x8888888888888888U, 0x8888888888888888U, 0x8888888888888888U, 0x8888888888888888U,
  0x8888888888888888U, 0x8888888888888888U, 0x8888888888888888U, 0x8888888888888888U,
  0x8888888888888888U, 0x8888888888888888U, 0x8888888888888888U, 0x8888888888888888U,
  0x8888888888888888U, 0x8888888888888888U, 0x8888888888888888U, 0x8888888888888888U,
  0x8888888888888888U, 0x8888888888888888U, 0x8888888888888888U, 0x8888888888888888U,
  0x8888888888888888U, 0x8888888888888888U, 0x8888888888888888U, 0x8888888888888888U,
  0x8888888888888888U, 0x8888888888888888U, 0x8888888888888888U, 0x8888888888888888U,
  0x8888888888888888U, 0x8888888888888888U, 0x8888888888888888U, 0x8888888888888888U,
  0x8888888888888888U, 0x8888888888888888U, 0x8888888888888888U, 0x8888888888888888U,
  0x8888888888888888U, 0x8888888888888888U, 0x8888888888888888U, 0x8888888888888888U,
  0x8888888888888888U, 0x8888888888888888U, 0x8888888888888888U, 0x8888888888888888U,
  0x8888888888888888U, 0x8888888888888888U, 0x8888888888888888U, 0x8888888888888888U,
  0x8888888888888888U, 0x8888888888888888U, 0x8888888888888888U, 0x8888888888888888U,
  0x8888888888888888U, 0x8888888888888888U, 0x8888888888888888U, 0x8888888888888888U,
  0x8888888888888888U, 0x8888888888888888U, 0x8888888888888888U, 0x8888888888888888U,
  0x8888888888888888U, 0x8888888888888888U, 0x8888888888888888U, 0x8888888888888888U,
  0x8888888888888888U, 0x8888888888888888U, 0x8888888888888888U, 0x8888888888888888U,
  0x8888888888888888U, 0x8888888888888888U, 0x8888888888888888U, 0x8888888888888888U,
  0x8888888888888888U, 0x8888888888888888U, 0x8888888888888888U, 0x8888888888888888U,
  0x8888888888888888U, 0x8888888888888888U, 0x8888888888888888U, 0x8888888888888888U,
  0x8888888888888888U, 0x8888888888888888U, 0x8888888888888888U, 0x8888888888888888U,
  0x8888888888888888U, 0x8888888888888888U, 0x8888888888888888U, 0x8888888888888888U,
  0x8888888888888888U, 0x8888888888888888U, 0x8888888888888888U, 0x8888888888888888U,
  0x8888888888888888U, 0x8888888888888888U, 0x8888888888888888U, 0x8888888888888888U,
  0x8888888888888888U, 0x8888888888888888U, 0x8888888888888888U, 0x8888888888888888U,
  0x8888888888888888U, 0x8888888888888888U, 0x8888888888888888U, 0x8888888888888888U,
  0x8888888888888888U, 0x8888888888888888U, 0x8888888888888888U, 0x8888888888888888U,
  0x8888888888888888U, 0x8888888888888888U, 0x8888888888888888U, 0x9999997988888888U,
  0xd98986788aa758aaU, 0xaa89c8aca9abcba6U, 0x766a558587b97596U, 0xc988327698589427U,
  0x8987996594899667U, 0xa54a6746858888a7U, 0x6776344a5569b55aU, 0x76a89b85a96943b9U,
  0x8454b5b86875897aU, 0x989a7a4685c98b43U, 0xa767588a87759797U, 0x787b9ba79aa8bb9bU,
  0x5777a86aa789a999U, 0x5867455879656896U, 0x8749645675659647U, 0x8678696676977555U,
  0x9a7757a96977986bU, 0x887989587a9967a7U, 0x8888888888888888U, 0x8888888888888888U,
  0x8588888888888888U, 0x9a9aa779a9378976U, 0x7776799aa77897abU, 0xc377a95967448977U,
  0x6d366387a3aaac9aU, 0x69667655a9747566U, 0x997a9a5689a76686U, 0x993769ba88b9a889U,
  0x969ba89aac9aa887U, 0x999785897898a889U, 0xca8b598b8a977878U, 0x9b9b8799a9ab8a87U,
  0x7888acaa56b69babU, 0x8877686a5987a679U, 0xa9997a9aa9986778U, 0x54a6775786b99aa5U,
  0x997968897498ab76U, 0x9b9798b89a979a99U, 0x89a98b8779a78999U, 0x667ba9799977979aU,
  0xb556559588988868U, 0x5aa79aaa75996977U, 0x89c947789657a698U, 0x85a79889868a9a95U,
  0xab8c99a5ba66815aU, 0x8977ca68978968a9U, 0xaaab9a998997a9a7U, 0x5594a9bb76aa9ca9U,
  0x86567946797586a6U, 0x7889a89b868ca98cU, 0x9666979a9c75b99aU, 0x9c78aa9924557889U,
  0x95474a6789477456U, 0x666885b98a6669a8U, 0xab668889cb9c6788U, 0xab8967a99b6766a7U,
  0x88aa96a9aa899887U, 0xa9aa588736658889U, 0x87b78998aa9a9879U, 0xa97887997c347998U,
  0x97698a8875b99a69U, 0x8a66966675973734U, 0x8999a99b97ab898cU, 0x8797a88967c8ba8bU,
  0x967968896b748956U, 0x66a78bd98ab9899bU, 0xa788787869a96978U, 0x5595672652778856U,
  0x5978986886445998U, 0x95a77786baaa99abU, 0x547798555a935775U, 0x787a9779a9888577U,
  0x9988898675967987U, 0x9989988987898888U, 0x9889888998897888U, 0x89889898a9897877U,
  0x7ba778abaa9da97aU, 0x76a995aba697ad97U, 0xa98378a576798847U, 0x5476656599678688U,
  0x999787d599687a86U, 0xa79999ab6889aa79U, 0x9a97778986977a88U, 0x98aa89889aa987a5U,
  0x135556978799665aU, 0x9a7979a899963333U, 0x6567687877677a99U, 0x8a98a8a6787988a8U,
  0x89a6867856a59999U, 0x879579d8a68a9847U, 0xb99a58a68b688576U, 0xa89b9a6775aa8758U,
  0x88a76a748986a7bbU, 0x655555666499a946U, 0x89a788a96a85a967U, 0x8a589999a996a999U,
  0x5647778a9878b9dbU, 0x9a9875889a98a979U, 0xa789769c977a9974U, 0x979b5a5675996978U,
  0x8898a97988ac7a89U, 0x8a88679798a8baa9U, 0x6577345385477466U, 0xaaba897588674568U,
  0x898aa68bb799a89aU, 0x6687796a9599b96aU, 0x8b68564578a67577U, 0xa77999988b678bacU,
  0x87b5887969a999b9U, 0x88c8979a7aa87897U, 0x7aa6ab888a78b7abU, 0x73687795777775b8U,
  0x87485635578564a3U, 0x5798a699b888a799U, 0x974967966846149aU, 0x785869558bc75994U,
  0x79999998a9874665U, 0xba9c996968778887U, 0x6977b57887888999U, 0x949799985b787879U,
  0x896a7a9976a86756U, 0x88797768bb8a9697U, 0x8788888888888888U, 0x8888788888888888U,
  0x8888888888888888U, 0xa599b77aa8797b85U, 0x58998989a896898aU, 0x7987aa9aaa57ada9U,
  0x8c96996776868a9aU, 0x64878987c979a979U, 0x77a95687255ac96aU, 0xacb8699597669788U,
  0x7acb56bab6855867U, 0x897966a9a9846847U, 0x7b69677586976695U, 0xcaba9b99aa77a986U,
  0x67874487a77b8777U, 0x778aa8db89658778U, 0x997564999a4695baU, 0xb988779a8c8788a8U,
  0xb997aa89cd868696U, 0x98aa46265a387996U, 0x7b8a88a779a8798aU, 0x666996a7a87aa779U,
  0x5676736b44969c74U, 0x8a8788a78a9989caU, 0x97799aab78889788U, 0xbb68849848a7677bU,
  0x8aba89aa97784988U, 0x68895754969ba979U, 0x96a68a98aa988969U, 0x97399c6698b8996aU,
  0x4845a8897567a578U, 0x9998b86588778986U, 0xc989ab6999978868U, 0x79a6bc9999ba999aU,
  0x57cbba8ab988b996U, 0x96c74ca69aa9b9abU, 0x3275caaaa77aa978U, 0x8975854354228757U,
  0x6a7876877668954aU, 0x498588c898584737U, 0x7a36b57967679aaaU, 0x875765879976879aU,
  0x9b7bac6589885887U, 0x9b8957a8786a6977U, 0xa895a87789a9a8a9U, 0xb899898a76798779U,
  0x94a8677797a79799U, 0xa779759688495424U, 0x88775a7577884498U, 0x9b696785da9c6899U,
  0x5ba79678aa699698U, 0x8598a88896989b65U, 0x6979665546974867U, 0xbb88c69d69988657U,
  0x8769958a999abbccU, 0x99b978779aaa7a99U, 0xa9639b896767786dU, 0x65977966a99b4669U,
  0x5b86986745768887U, 0x9b8667b899a97a89U, 0xaa9b8bbabd6965a8U, 0xa7a8a79aa99a9a8aU,
  0xaa7a87898b8864a9U, 0x779879786887888aU, 0x99a89a997ab8a99aU, 0x887988389967b799U,
  0x658699588799797aU, 0x968875658886599aU, 0x559a9da8b8bb4669U, 0x6763776a85a9ab97U,
  0x67997b886b878668U, 0xbb8987bbaa473653U, 0x47a67a68a68997a9U, 0xa58a8da788998798U,
  0x7766985746978879U, 0x7965b76864897987U, 0x969776598a986669U, 0x96bb395657573888U,
  0x9a8a6685b7987bc8U, 0x8979ba6b7879aab8U, 0x899766bba598a677U, 0x8764679878787767U,
  0xa9a869777967789aU, 0x776a7a37a76b8976U, 0x6a63688868674258U, 0x55535884887a888bU,
  0x8b868aaa78d998b8U, 0x86547769ab8a96a7U, 0x694688ba5ba767b7U, 0x58a85a274178ab8aU,
  0xbb9b8897877676a5U, 0x89957947c79b969aU, 0xa9b855967a548779U, 0x8776879569858689U,
  0x66978499979aaa69U, 0x5863754966574426U, 0x8a975797a9596597U, 0x56569577898957a5U,
  0x9678797586a87a79U, 0x985b98aa9a68bb8bU, 0xa6757589889a6678U, 0x99ca9a77767b678cU,
  0xab7ba89b8777a968U, 0x977a597887b87994U, 0x8b999b8778ba7889U, 0x8567aa67a88988baU,
  0xa79984a65a655457U, 0x8ba86b8889775679U, 0x87698878a799a985U, 0xaa8b78ccab7985aaU,
  0x696578aa55657885U, 0x9867bb6696b65aa9U, 0x877768988889a67cU, 0x78a9966866a88a79U,
  0x7765879a9a585477U, 0xa9ba688644497665U, 0x8888888888988799U, 0x8888888888888988U,
  0x8788888888888888U, 0x6576836877888888U, 0x8795674478995966U, 0x6868858874a87833U,
  0xca7aa99b798789a7U, 0xbbab9ba89b8a9aa8U, 0x668786866899c99bU, 0x8677795995453598U,
  0x9b45355646788977U, 0x899b9b69b6b87774U, 0x878896ba99886977U, 0x966ba768aa677987U,
  0x6789898785aa9a79U, 0x6798679799a78567U, 0x67a75a6978b97987U, 0x7a944445487977a7U,
  0xaa88877877587687U, 0xb5da67a56968799aU, 0x7985886895ba8ab6U, 0x5486898a87567899U,
  0x888a7a848776aa58U, 0xb98696a96a779989U, 0x9787a99958a67979U, 0x7779555769476465U,
  0x995856988a879896U, 0x8678a8baba597987U, 0x9a388798a8998977U, 0x7a358598565498a9U,
  0x98ba9aa8aa876697U, 0x689d588597775755U, 0x6a868b4596699776U, 0x986795799a78baa8U,
  0x697789b75387989bU, 0x6a88978886956678U, 0x6686788758a679bbU, 0xb6877b6a6a889757U,
  0xa88899989b997875U, 0x8a56864766668a55U, 0xbaae66b7a96765a9U, 0xa88767667bc88986U,
  0xa789857b99889965U, 0x965496765756a9abU, 0x7a77a87535668688U, 0x77cb7689a68888a8U,
  0x9857668776a87a76U, 0x73a57a9787ab999bU, 0x649888367599b857U, 0x86887a89aab57a89U,
  0xa7a7a8a7979ba769U, 0x8667947689694789U, 0x67988a8987a87698U, 0xa898a89788a97885U,
  0x97996a7a78997686U, 0x577798679b9988a9U, 0x7689688759788597U, 0x66b8d68b967b9976U,
  0x778aa89967999888U, 0x564641967a7b96abU, 0xa869677798844667U, 0x777756795578a75aU,
  0x7797aa8756a98a68U, 0x665b791592674466U, 0x679888535485aa67U, 0xa7988a8988988959U,
  0x35846a9685577866U, 0x9989a5956b75a998U, 0x8478798b9698ba58U, 0x94c98879b969cb98U,
  0x6796a8677776b77aU, 0xa876a9ab8a77987bU, 0x67a6ba899867b9abU, 0x99a97a7878797869U,
  0x87a969ab99cb96a9U, 0x6a996a7854995a37U, 0x99799926b9889aa9U, 0x867b6a84a9887988U,
  0x797a975a47998979U, 0x967778789a9a8887U, 0xa9bd877999798798U, 0x8c75234695ca6787U,
  0x857a8579aa9988aaU, 0x75992475aa79667aU, 0x89c7aaaa4ab98957U, 0x8957b79878788698U,
  0x6a78a9687677988aU, 0xa7b8868a9a68a98aU, 0xa9a888b9c9aab89aU, 0x8986a9baab9baa9aU,
  0x595a874776789689U, 0x879797a788896888U, 0x7897ba7a76976657U, 0x77a88695b969aacbU,
  0xa85765788a897978U, 0x878a9789c9889768U, 0x4877b87733aa8468U, 0xa95855a78757b36dU,
  0x872ab978aa6a7687U, 0x6ba84bd9bbcca6abU, 0x6479974676456593U, 0x49987995486397a8U,
  0x9767778a9966b79bU, 0x9787686556768897U, 0x688a779855678866U, 0xaa9aaa9789797777U,
  0x676495a79b86a9baU, 0x789868757586b889U, 0x687873998a89aa99U, 0x55577958677666a9U,
  0x9bbab97b48975667U, 0x8a7b899798a9877aU, 0xa96c999ac7c78899U, 0x56744435235497bbU,
  0xb69aab797a43a566U, 0xa7b999579aaa9877U, 0x887868888787da6aU, 0x8777888888878887U,
  0x7788877887888787U, 0x7888888788887887U, 0xaccb7dc7a99a9aa9U, 0x68659887b697cbb8U,
  0xa9887a68b39a9889U, 0x5466874978858997U, 0x9999997659876657U, 0xba674585aa665588U,
  0xa5779655b7c9678bU, 0x86784b859b684799U, 0xa8969989768c79baU, 0x8888888888888888U,
  0x8888888888888888U, 0x8888788888888888U, 0x8888888888888888U, 0x8888888888888888U,
  0x8887888888888888U, 0x8888888888888878U, 0x8888888888888888U, 0x8888888888888888U,
  0x8888888888888888U, 0x8888888888888888U, 0x8888888888888888U, 0x8888787888888888U,
  0x8888888887888888U, 0x8888888888888888U, 0x8888888888888888U, 0x8888888888888888U,
  0x8888888888888888U, 0x8888888888888888U, 0x8888888888888888U, 0x8888888888888888U,
  0x8888888888888888U, 0x8888888787878888U, 0x8888888888888888U, 0x8888888878878888U,
  0x8888888888888888U, 0x8877888887888888U, 0x8888887888888788U, 0x8888888888888888U,
  0x8888888888888888U, 0x8788888888888888U, 0x8888888887878877U, 0x8888888888888888U,
  0x8888888878888888U, 0x8888888888888888U, 0x8888888888888888U, 0x8888888888888888U,
  0x8788888887788878U, 0x8878788877777888U, 0x7888888888888888U, 0x8888788888888788U,
  0x8888888888888888U, 0x8888888888888888U, 0x8888888888888888U, 0x8888888888888888U,
  0x7887888888888888U, 0x8888888888888888U, 0x8888888788888888U, 0x8788888878888888U,
  0x7888888888888888U, 0x8878888888888878U, 0x8888888888888888U, 0x8888888888888888U,
  0x8888888888888888U, 0x8888888888888888U, 0x8878788888888788U, 0x8888878888888888U,
  0x8888888888788888U, 0x8888888887888888U, 0x8888888888888888U, 0x7887888888888888U,
  0x8888888888887787U, 0x8888888888888888U, 0x8888888888888888U, 0x8888888788878888U,
  0x8888888888888888U, 0x8887888888888888U, 0x8888888888888887U, 0x8888888888888888U,
  0x8888888888888888U, 0x8888888888888888U, 0x8888888888888888U, 0x8888888888888888U,
  0x8888888888888888U, 0x8888888888888888U, 0x8888888888888888U, 0x8888888888888888U,
  0x8888888888888888U, 0x8888888888788888U, 0x8888888888888888U, 0x8888888888888888U,
  0x8888888888888888U, 0x8878888888888888U, 0x7877788778878878U, 0x8887888878878788U,
  0x8888888888888888U, 0x8888888888888888U, 0x8888888888888888U, 0x8888888888888888U,
  0x8888888888888888U, 0x8888888888888888U, 0x8888888888888888U, 0x8888888888888888U,
  0x8888888887888878U, 0x8888888887888888U, 0x8888888888888888U, 0x8888888888888888U,
  0x8888888888888888U, 0x8888888888887878U, 0x8888888888888888U, 0x8887888888888888U,
  0x8888888888888888U, 0x8888888888888888U, 0x8888888888887788U, 0x8888888888888888U,
  0x8888888888888888U, 0x8888888888888888U, 0x8888888888888888U, 0x8888888888888888U,
  0x8888888888888888U, 0x8888888888888888U, 0x8888888888888888U, 0x8888888888888888U,
  0x8888888888888888U, 0x8888888888888888U, 0x8888888888888888U, 0x8888888888878888U,
  0x8888887888888887U, 0x8888888888888888U, 0x8888888878888888U, 0x8888888888888888U,
  0x8888888888888888U, 0x8888888888888888U, 0x8888888888888888U, 0x8888888888888888U,
  0x8888888888888888U, 0x8888888888788888U, 0x8888888888888888U, 0x8888888888888888U,
  0x8788888888888888U, 0x7888888887888888U, 0x8888888787878888U, 0x8888888888888888U,
  0x8888888888888888U, 0x8888888888888888U, 0x8888888888888888U, 0x8888888888888888U,
  0x8888888888888888U, 0x8888888888888888U, 0x8888888888888888U, 0x8887887888888888U,
  0x8888788888887787U, 0x8888888888888888U, 0x8888887888888888U, 0x8888888888888888U,
  0x8888888888888888U, 0x8788888888888888U, 0x8888888888788788U, 0x8888888888888888U,
  0x8888788888888788U, 0x7787888887787788U, 0x8888888888888888U, 0x8888888888888888U,
  0x8888888888888888U, 0x8888888888888888U, 0x8887888887888888U, 0x8788888878888888U,
  0x8888888888888888U, 0x8887888888888888U, 0x8888888888888888U, 0x8888888888888888U,
  0x8888888888888888U, 0x8888888888888888U, 0x8888888888888888U, 0x8788888888888888U,
  0x8888888888888888U, 0x8888888888888888U, 0x8888888788888888U, 0x8888888788888878U,
  0x8888878888878888U, 0x8888888888888888U, 0x8888888888888888U, 0x8888888888888888U,
  0x8888888888888888U, 0x8888888888888888U, 0x8888888888888888U, 0x8888888888888888U,
  0x8888888888888888U, 0x8888888888888888U, 0x8887888888888888U, 0x8888878887887888U,
  0x8888888888888888U, 0x8888888888888888U, 0x8888888888888888U, 0x8888888888888888U,
  0x8888888888888887U, 0x8888778777887888U, 0x8888888888778888U, 0x8888888888888888U,
  0x8888888888888888U, 0x8888888888888888U, 0x8888888888888888U, 0x8878888887888878U,
  0x8888888888888888U, 0x8888888888888888U, 0x8888888888888888U, 0x8888888888888888U,
  0x8888888888888888U, 0x8888888888888888U, 0x8888888888888888U, 0x8888888888888888U,
  0x8888888888888888U, 0x8888788888888888U, 0x8888888888888888U, 0x8888888888888888U,
  0x8888888888888888U, 0x8888888888888888U, 0x8888888888888888U, 0x8888888888888788U,
  0x8888888888888888U, 0x7888888888888888U, 0x8888788888888888U, 0x8888888888888888U,
  0x8888888888888888U, 0x8888888888888888U, 0x8888888888888888U, 0x8888788788888888U,
  0x8888888888888888U, 0x7788888887888888U, 0x8888888887888878U, 0x7887788788888888U,
  0x8888888888787888U, 0x8888888888888888U, 0x8888888888888888U, 0x8888888888888888U,
  0x8888888888888888U, 0x8888888788888888U, 0x8888878887888878U, 0x8888888888888888U,
  0x8888888888888888U, 0x8888888888888888U, 0x8888888888888888U, 0x8888888888888888U,
  0x8888888888888888U, 0x8888888888888888U, 0x8888888888888888U, 0x8888888888888888U,
  0x8888888888888888U, 0x8888888888888888U, 0x8888888888888888U, 0x8888888888888888U,
  0x8888888888888888U, 0x8888888888888888U, 0x8888888888888888U, 0x8888888888888888U,
  0x8888888888888888U, 0x8888888888888888U, 0x8888888888888888U, 0x8888777888788778U,
  0x8888888888888888U, 0x8888888888888888U, 0x8877878888888888U, 0x8888788788788788U,
  0x8888888888887888U, 0x8888888888888888U, 0x8888888888888888U, 0x8887888888888888U,
  0x8888888888888888U, 0x8888888888888888U, 0x8888888888888888U, 0x8888888888888888U,
  0x8888888888888888U, 0x8888888888888888U, 0x8887888878888888U, 0x8888888888878888U,
  0x8888888888888887U, 0x8888888888888888U, 0x8888888888888888U, 0x8888888888888888U,
  0x8888888888888888U, 0x8888888888888888U, 0x8888888888888888U, 0x8888888888888788U,
  0x8888888888888888U, 0x8888888888888888U, 0x8888887878888888U, 0x8878887888888888U,
  0x8888888888888888U, 0x8888888888888888U, 0x8888887788887877U, 0x8888888888888888U,
  0x8888888888888888U, 0x8888888888888888U, 0x8888888888888888U, 0x8888887787888888U,
  0x8888888888888888U, 0x8888888888888888U, 0x8888888888888888U, 0x8888888888888888U,
  0x8888888888888888U, 0x8888888888888888U, 0x8888778788878888U, 0x8888888888888888U,
  0x8888888888888888U, 0x7888888888888888U, 0x8888888887787878U, 0x8888888888888888U,
  0x8887888888788888U, 0x8888888888888888U, 0x8888888888888888U, 0x8788888778788887U,
  0x8888888888788888U, 0x8888888888888888U, 0x8887788888878888U, 0x7888888887788788U,
  0x8888888888888888U, 0x8888888888888888U, 0x8888888888888888U, 0x8888888888888888U,
  0x8888888888888888U, 0x8888888888888888U, 0x8888888888888888U, 0x8888888888888878U,
  0x8888888888888888U, 0x7888888888888888U, 0x8887888888888888U, 0x8888887888888888U,
  0x8878888888888888U, 0x8888888888888888U, 0x8888888878888888U, 0x8888888888888888U,
  0x8888888888888888U, 0x8888888888888888U, 0x8888888888888888U, 0x8888888888888888U,
  0x8788888888888887U, 0x8888888888888888U, 0x8888888888888888U, 0x8888888888888888U,
  0x8888888888888888U, 0x8788887787878888U, 0x8888888888888888U, 0x8888888887888888U,
  0x8878888888888888U, 0x8888888888888888U, 0x8888888888888888U, 0x8888888888888888U,
  0x8888888888888888U, 0x8888888888888888U, 0x8888888888888888U, 0x8888878888888888U,
  0x8888888788888788U, 0x8888888888787878U, 0x8888888788888887U, 0x8888888888878888U,
  0x8888888888888888U, 0x8888888888888888U, 0x8888888888888888U, 0x8888888888888888U,
  0x8888887888888888U, 0x8888888878878888U, 0x8888888888888888U, 0x8888887888878788U,
  0x8888888888888888U, 0x8888888888888888U, 0x8888888888888888U, 0x8888888888888888U,
  0x8888888888888888U, 0x8888887888888888U, 0x8887888888888888U, 0x8888888888888888U,
  0x8888888888888888U, 0x8888888888888888U, 0x8888888888888888U, 0x8888888888888888U,
  0x8888888888888888U, 0x8888888888888888U, 0x8888888888888888U, 0x8888888888888888U,
  0x8888888888888888U, 0x8888888888888888U, 0x8888888888888888U, 0x8888888888888888U,
  0x8888888888888888U, 0x8888888888888888U, 0x8888888888888888U, 0x8888888888888888U,
  0x8888888888888888U, 0x8888888888888888U, 0x8888888888888888U, 0x8888888888888888U,
  0x8888888888888888U, 0x8888888888888888U, 0x8888888888888888U, 0x8888888888888888U,
  0x8888888888888888U, 0x8888888888888888U, 0x8888888888888888U, 0x8888888888888888U,
  0x8888888888888888U, 0x8888888888888888U, 0x8888888888888888U, 0x8888888888888888U,
  0x8888888888888888U, 0x8888888888888888U, 0x8888888888888888U, 0x8888888888888888U,
  0x8888888888888888U, 0x8888888888888888U, 0x8888888888888888U, 0x8888888888888888U,
  0x8888888888888888U, 0x8888888888888888U, 0x8888888888888888U, 0x8888888888888888U,
  0x8888888888888888U, 0x8888888888888888U, 0x8888888888888888U, 0x8888888888888888U,
  0x8888888888888888U, 0x8888888888888888U, 0x8888888888888888U, 0x8888888888888888U,
  0x8888888888888888U, 0x8888888888888888U, 0x8888888888888888U, 0x8888888888888888U,
  0x8888888888888888U, 0x8888888888888888U, 0x8888888888888888U, 0x8888888888888888U,
  0x8888888888888888U, 0x8888888888888888U, 0x8888888888888888U, 0x8888888888888888U,
  0x8888888888888888U, 0x8888888888888888U, 0x8888888888888888U, 0x8888888888888888U,
  0x8888888888888888U, 0x8888888888888888U, 0x8888888888888888U, 0x8888888888888888U,
  0x8888888888888888U, 0x8888888888888888U, 0x8888888888888888U, 0x8888888888888888U,
  0x8888888888888888U, 0x8888888888888888U, 0x8888888888888888U, 0x8888888888888888U,
  0x8888888888888888U, 0x8888888888888888U, 0x8888888888888888U, 0x8888888888888888U,
  0x8888888888888888U, 0x8888888888888888U, 0x8888888888888888U, 0x8888888888888888U,
  0x8888888888888888U, 0x8888888888888888U, 0x8888888888888888U, 0x8888888888888888U,
  0x8888888888888888U, 0x8888888888888888U, 0x8888888888888888U, 0x8888888888888888U,
  0x8888888888888888U, 0x8888888888888888U, 0x8888888888888888U, 0x8888888888888888U,
  0x8888888888888888U, 0x8888888888888888U, 0x8888888888888888U, 0x8888888888888888U,
  0x8888888888888888U, 0x8888888888888888U, 0x8888888888888888U, 0x8888888888888888U,
  0x8888888888888888U, 0x8888888888888888U, 0x8888888888888888U, 0x8888888888888888U,
  0x8888888888888888U, 0x8888888888888888U, 0x8888888888888888U, 0x8888888888888888U,
  0x8888888888888888U, 0x8888888888888888U, 0x8888888888888888U, 0x8888888888888888U,
  0x8888888888888888U, 0x8888888888888888U, 0x8888888888888888U, 0x8888888888888888U,
  0x8888888888888888U, 0x8888888888888888U, 0x8888888888888888U, 0x8888888888888888U,
  0x8888888888888888U, 0x8888888888888888U, 0x8888888888888888U, 0x8888888888888888U,
  0x8888888888888888U, 0x8888888888888888U, 0x8888888888888888U, 0x8888888888888888U,
  0x8888888888888888U, 0x8888888888888888U, 0x8888888888888888U, 0x8888888888888888U,
  0x8888888888888888U, 0x8888888888888888U, 0x8888888888888888U, 0x8888888888888888U,
  0x8888888888888888U, 0x8888888888888888U, 0x8888888888888888U, 0x8888888888888888U,
  0x8888888888888888U, 0x8888888888888888U, 0x8888888888888888U, 0x8888888888888888U,
  0x8888888888888888U, 0x8888888888888888U, 0x8888888888888888U, 0x8888888888888888U,
  0x8888888888888888U, 0x8888888888888888U, 0x8888888888888888U, 0x8888888888888888U,
  0x8888888888888888U, 0x8888888888888888U, 0x8888888888888888U, 0x8888888888888888U,
  0x8888888888888888U, 0x8888888888888888U, 0x8888888888888888U, 0x8888888888888888U,
  0x8888888888888888U, 0x8888888888888888U, 0x8888888888888888U, 0x8888888888888888U,
  0x8888888888888888U, 0x8888888888888888U, 0x8888888888888888U, 0x8888888888888888U,
  0x8888888888888888U, 0x8888888888888888U, 0x8888888888888888U, 0x8888888888888888U,
  0x8888888888888888U, 0x8888888888888888U, 0x8888888888888888U, 0x8888888888888888U,
  0x8888888888888888U, 0x8888888888888888U, 0x8888888888888888U, 0x8888888888888888U,
  0x8888888888888888U, 0x8888888888888888U, 0x8888888888888888U, 0x8888888888888888U,
  0x8888888888888888U, 0x8888888888888888U, 0x8888888888888888U, 0x8888888888888888U,
  0x8888888888888888U, 0x8888888888888888U, 0x8888888888888888U, 0x8888888888888888U,
  0x8888888888888888U, 0x8888888888888888U, 0x8888888888888888U, 0x8888888888888888U,
  0x8888888888888888U, 0x8888888888888888U, 0x8888888888888888U, 0x8888888888888888U,
  0x8888888888888888U, 0x8888888888888888U, 0x8888888888888888U, 0x8888888888888888U,
  0x8888888888888888U, 0x8888888888888888U, 0x8888888888888888U, 0x8888888888888888U,
  0x8888888888888888U, 0x8888888888888888U, 0x8888888888888888U, 0x8888888888888888U,
  0x8888888888888888U, 0x8888888888888888U, 0x8888888888888888U, 0x8888888888888888U,
  0x8888888888888888U, 0x8888888888888888U, 0x8888888888888888U, 0x8888888888888888U,
  0x8888888888888888U, 0x8888888888888888U, 0x8888888888888888U, 0x8888888888888888U,
  0x8888888888888888U, 0x8888888888888888U, 0x8888888888888888U, 0x8888888888888888U,
  0x8888888888888888U, 0x8888888888888888U, 0x8888888888888888U, 0x8888888888888888U,
  0x8888888888888888U, 0x8888888888888888U, 0x8888888888888888U, 0x8888888888888888U,
  0x8888888888888888U, 0x8888888888888888U, 0x8888888888888888U, 0x8888888888888888U,
  0x8888888888888888U, 0x8888888888888888U, 0x8888888888888888U, 0x8888888888888888U,
  0x8888888888888888U, 0x8888888888888888U, 0x8888888888888888U, 0x8888888888888888U,
  0x8888888888888888U, 0x8888888888888888U, 0x8888888888888888U, 0x8888888888888888U,
  0x8888888888888888U, 0x8888888888888888U, 0x8888888888888888U, 0x8888888888888888U,
  0x8888888888888888U, 0x8888888888888888U, 0x8888888888888888U, 0x8888888888888888U,
  0x8888888888888888U, 0x8888888888888888U, 0x8888888888888888U, 0x8888888888888888U,
  0x8888888888888888U, 0x8888888888888888U, 0x8888888888888888U, 0x8888888888888888U,
  0x8888888888888888U, 0x8888888888888888U, 0x8888888888888888U, 0x8888888888888888U,
  0x8888888888888888U, 0x8888888888888888U, 0x8888888888888888U, 0x8888888888888888U,
  0x8888888888888888U, 0x8888888888888888U, 0x8888888888888888U, 0x8888888888888888U,
  0x8888888888888888U, 0x8888888888888888U, 0x8888888888888888U, 0x8888888888888888U,
  0x8888888888888888U, 0x8888888888888888U, 0x8888888888888888U, 0x8888888888888888U,
  0x8888888888888888U, 0x8888888888888888U, 0x8888888888888888U, 0x8888888888888888U,
  0x8888888888888888U, 0x8888888888888888U, 0x8888888888888888U, 0x8888888888888888U,
  0x8888888888888888U, 0x8888888888888888U, 0x8888888888888888U, 0x8888888888888888U,
  0x8888888888888888U, 0x8888888888888888U, 0x8888888888888888U, 0x8888888888888888U,
  0x8888888888888888U, 0x8888888888888888U, 0x8888888888888888U, 0x8888888888888888U,
  0x8888888888888888U, 0x8888888888888888U, 0x8888888888888888U, 0x8888888888888888U,
  0x8888888888888888U, 0x8888888888888888U, 0x8888888888888888U, 0x8888888888888888U,
  0x8888888888888888U, 0x8888888888888888U, 0x8888888888888888U, 0x8888888888888888U,
  0x8888888888888888U, 0x8888888888888888U, 0x8888888888888888U, 0x8888888888888888U,
  0x8888888888888888U, 0x8888888888888888U, 0x8888888888888888U, 0x8888888888888888U,
  0x8888888888888888U, 0x8888888888888888U, 0x8888888888888888U, 0x8888888888888888U,
  0x8888888888888888U, 0x8888888888888888U, 0x8888888888888888U, 0x8888888888888888U,
  0x8888888888888888U, 0x8888888888888888U, 0x8888888888888888U, 0x8888888888888888U,
  0x8888888888888888U, 0x8888888888888888U, 0x8888888888888888U, 0x8888888888888888U,
  0x8888888888888888U, 0x8888888888888888U, 0x8888888888888888U, 0x8888888888888888U,
  0x8888888888888888U, 0x8888888888888888U, 0x8888888888888888U, 0x8888888888888888U,
  0x8888888888888888U, 0x8888888888888888U, 0x8888888888888888U, 0x8888888888888888U,
  0x8888888888888888U, 0x8888888888888888U, 0x8888888888888888U, 0x8888888888888888U,
  0x8888888888888888U, 0x8888888888888888U, 0x8888888888888888U, 0x8888888888888888U,
  0x8888888888888888U, 0x8888888888888888U, 0x7659987597666578U, 0x9a9ad988c89a776bU,
  0x9c8b8768c8977995U, 0x68957a86a9ab58b5U, 0xbbb8aa9abb999a6aU, 0x898678b97898b8acU,
  0xa866879858789997U, 0x7787557876588697U, 0x9bba68cb8a497987U, 0x7999999a997998bbU,
  0x8a78b96898caaa87U, 0x59996996799767aaU, 0xb76888986848b97aU, 0x47aaa968458a9a67U,
  0x7a88bb7a68988b68U, 0x998787998979a87bU, 0x9889978b97779ca8U, 0x58a899679b7867a8U,
  0x888888888879aaaaU, 0x8888888888788888U, 0x8888988888888888U, 0x7579688489888888U,
  0x776b667878d79976U, 0x657689986664756aU, 0x85869a6996378967U, 0xaab79b8973688976U,
  0x9ab985cb8a8aa8aaU, 0xa549993979999bc6U, 0x9875b58959458569U, 0xaa7977a6895997a9U,
  0x867895da88a97a99U, 0x9889a99a79977898U, 0x8c6869a78adbbabdU, 0xc97c989bab8779bcU,
  0xa7ab677698bb5a69U, 0x67773674b59a8768U, 0x6635abab697a7787U, 0xbaa997498988288aU,
  0x857a5585b6ac7999U, 0x8979869a779a7977U, 0xaa99978676786786U, 0xc6baaaa7ab8988bcU,
  0x8a968a5895bba97aU, 0x5474aa3877c7ababU, 0x6b65877952466649U, 0x697787a7b847666bU,
  0x7ba78acb759a789cU, 0x76a8966995579b84U, 0x7859767a65767677U, 0x95aa979acba5aa9aU,
  0x4486797935c9b979U, 0x9aa98759935ba946U, 0x76585668895b67a7U, 0xa978854a67764564U,
  0xb7aa5a77879877d9U, 0xaa9a8a89699a8599U, 0x959a8586989b78aaU, 0x5896895a879b7987U,
  0x79949b77868ab998U, 0xa8da7987a79c996aU, 0x78877a87889a6578U, 0xa9aba9889987a978U,
  0x57557688968a66a9U, 0xa888666567845989U, 0x89a878887698b979U, 0x587878ab6778497aU,
  0x995958a7a8a98887U, 0x86a7a6658886b788U, 0x6997a8768a964965U, 0x9777699778869697U,
  0x5aa58a994675a9b7U, 0x39995487a6769888U, 0x557865799564867aU, 0x998988888c988997U,
  0x8788778898888889U, 0x8988888877889788U, 0x777a968898789778U, 0x857786847b886a88U,
  0x8787796847887976U, 0x548568a578a988a9U, 0x675895965886b788U, 0x6699776967b86a67U,
  0xa678566896898866U, 0x8a88ab8577bb6b8aU, 0x8a9d6b877898988bU, 0x89bc86888669a7abU,
  0xac97ab8898b88898U, 0x8989787798797997U, 0x59979869797899a8U, 0x998a7b67c9869879U,
  0x69b68797749ba989U, 0x958a7686896699a8U, 0x979987677766658bU, 0x6874468579896787U,
  0x7986747689485585U, 0x878ab99896979a78U, 0x79a7b78b886aaa89U, 0x6866a59974658a8aU,
  0xaa467a6a77683473U, 0x85c67758979d98cbU, 0x5576895886aa7c57U, 0x78a7857669487755U,
  0xa77a564586877966U, 0xab8988ab25899776U, 0xa6a6778769776586U, 0x6597765a848ac9acU,
  0xb99787994588a977U, 0xac6657b7bc8789a9U, 0x87ab869896898799U, 0x796666b77995c967U,
  0xa88c7bab8889a999U, 0x9a8aa7aa99789899U, 0x8756888a7d969697U, 0x8666a59949546535U,
  0x987877865667547bU, 0x5647a85897897859U, 0x7a7976694539a889U, 0xba59898888867888U,
  0xabcb8aa9b79e8a7aU, 0x57848b96a8696699U, 0x9a85b99a76767935U, 0x6965b789a79b8ba5U,
  0x8888988887999999U, 0x8888888888788788U, 0x8888988888888888U, 0x67daab8788888888U,
  0x875b9867c8aa9ab8U, 0x7766a98699987974U, 0xbba9598ba979ba9bU, 0x75a688989c89aaa8U,
  0xbb989ab798497768U, 0x8799a99a98997889U, 0x5468974b96778598U, 0xa7677a889876a8a9U,
  0x967772b989797794U, 0x8875668869769787U, 0xbb8954a6ab67868bU, 0x9a989a79a9a94586U,
  0xba9956c899a898baU, 0x9bb99ac778ab8786U, 0xca6746678863788cU, 0x8c67789899699897U,
  0x98b949766a899398U, 0xb99a889679997865U, 0x949b5674a89847a7U, 0x3174b96664778767U,
  0x7868765535334639U, 0x9557876488694a64U, 0x8887588979887689U, 0xdcac8ab88aa97899U,
  0xac5a778a8769a8a6U, 0x9a7b59b8cb94a6caU, 0x777698976987889bU, 0xaa7c9989ad7987a8U,
  0x6a967975668a4685U, 0x8959aa59a776a955U, 0x3779898b9589869bU, 0xaba88c7898d47977U,
  0x79a795cd9958b7b8U, 0x673869976a56aac9U, 0x769b9ba787c67667U, 0xa56c876b58679a88U,
  0xa85686a868a5aabaU, 0xad8a78986555a768U, 0xba8b6457ba8c56c4U, 0x9986aa8a7899a8a8U,
  0x8a69988886879998U, 0xbaadab6a98a7b888U, 0xaa76989899acab7aU, 0x96a9a78a7879a9a7U,
  0xaaa9466a86998856U, 0x989876996797ab97U, 0x749857994a899769U, 0x79b8559899998647U,
  0xb7979a79769b7b65U, 0x76a8b87a996a7887U, 0x5778dc47b8894a96U, 0x7775779756aa8979U,
  0x7788aa5985987867U, 0xaaa77867887baa7bU, 0x75877b89a998779aU, 0x98ab979aa9869757U,
  0x3389769575958866U, 0x9a79778867577b46U, 0x9cb88985b7aa898aU, 0xa787a979aa7aaaa5U,
  0x775a767587866689U, 0x7557766578a76678U, 0x96a6999a3756a797U, 0x8a96a6bd5d9769a9U,
  0x8977aab886858889U, 0x869968886877989aU, 0x879689a58b8b68c9U, 0x9a7ac7999b868979U,
  0x9a9aa976d79a68c9U, 0xa9688988a9a79abaU, 0x7596768579a7796aU, 0x7968738a98564578U,
  0x48588447557797a8U, 0x498667aa9a988859U, 0xa89976798977a769U, 0x86da6a85a9ac85abU,
  0x95777489a5577678U, 0x8a5584b8676ba677U, 0x89786596a9487697U, 0xbba9aa69aaa96978U,
  0xab895797798793bbU, 0x667aa9798798b789U, 0x5779558686438786U, 0x88876897acab46a9U,
  0x679568a767577857U, 0x898a896786667698U, 0xaa8a7a7879aac87aU, 0x9767a979c7cc8d66U,
  0x8b4896a936577699U, 0x9aa8877567a648a8U, 0x787798998cba9d97U, 0xbaaaa98787b85a98U,
  0xa99aa8a9aa9abaadU, 0x9ba9ab7886a9897bU, 0x899acb9d99dbcb8cU, 0x5686a6b986aa977aU,
  0x89997a9a65888679U, 0x8757879d99668a9aU, 0x7976559559b868c4U, 0x78979a866a9769a8U,
  0x98695376aa89988aU, 0x86a8897759ab6797U, 0x99949876698a5b88U, 0x9cb987576498aa33U,
  0xb9be798799a88a87U, 0x9a98bbaa79d8ad69U, 0xa89b8a6886698999U, 0x75877977b99a7786U,
  0x7777c98a5566aa67U, 0xa9aa798a887797b9U, 0xa9a85b969aa99799U, 0x88999a88758aa776U,
  0x7899896746785779U, 0x8888898888888888U, 0x8888888888888888U, 0x9988888888888898U,
  0x8779aa8a9889a8aaU, 0x8aa96889679a986aU, 0x4768ba6898769b86U, 0x9b664376867a8977U,
  0xa9a688989988b9a9U, 0x86688788859b67a8U, 0x78697a9777868789U, 0xaa8998aa9b97868aU,
  0xbaaa8a769987bc8cU, 0x99a87a66768759caU, 0x997b885cb869b878U, 0xc97a8a87bb9987b7U,
  0xa9877ab969989997U, 0x68aa6969898ab998U, 0x9a6666d8797685aaU, 0x955a6778aa59988aU,
  0xc9a6776979888898U, 0x964567589887daa4U, 0xa988aa9a9a78a877U, 0x7978969979988a68U,
  0x5975767898796977U, 0x9b6767a799887877U, 0x5797b86a998ba79aU, 0xcb9a6689bca979a9U,
  0x9ac8678998998875U, 0x9978a6bb8a967ab8U, 0x99a6a87576688896U, 0xc58a8b79979a5779U,
  0x77a9aa5965797865U, 0x9978977698999988U, 0x6689aa7a9a8a7958U, 0x896859979a884595U,
  0x7797a9aa6578a676U, 0x56858a987656679bU, 0x4b86997636846856U, 0xa8594434a4435555U,
  0x9a798666965a8a99U, 0x6976767589776799U, 0x8b889a96a8b96754U, 0x8875aa9a79a688a9U,
  0x63a7789487a97a86U, 0x7667786467986468U, 0x8978987976666776U, 0x2456b68ab7b98bb7U,
  0x7aa888b79b98546aU, 0x958898a9b7baaca7U, 0x6886876777797765U, 0x976b537866687497U,
  0x9a99bd8aa7b98957U, 0x767685ba699a79abU, 0x67668757866a7857U, 0xaa87997a7576959aU,
  0x898b87b968979588U, 0x43879955978a7769U, 0x77994ab87ba98869U, 0xa9399599688799a7U,
  0x76a88b8788da97a6U, 0x979a7a898668bb79U, 0x9a9985a799a68a54U, 0xaa9b8796a8796569U,
  0x88aa8a83a9ab6778U, 0x8886885699798788U, 0x8a7a9787aa76888aU, 0x4963788756b88ba9U,
  0x8977866697799398U, 0x6648859868974588U, 0x768aaa6984795666U, 0x8698865796886789U,
  0x7686caa858886a8aU, 0x889b7a68b999987aU, 0x7759b779abb88997U, 0x9677694577a57465U,
  0xa489858aa7798979U, 0xb97a978a7b8a5778U, 0xba8958a97acb7b96U, 0x75bba79878a87999U,
  0x98996867989a876aU, 0x778a5889c5ca6665U, 0xa7ba8a8a67887336U, 0x9787895887bb8968U,
  0x876889b4bc6a55a7U, 0x6575a89b64966a79U, 0x7899887445846696U, 0x7784699758c88967U,
  0xaa9aa88857679969U, 0x7777789998ca9bbaU, 0xbb8977986a769a69U, 0xa8a5a99967697666U,
  0x66539689675898aaU, 0xa9a9996956668676U, 0x8989688679587695U, 0x997a666497995764U,
  0x8d5996da899879b8U, 0x999ab8669a9a769aU, 0x677769888998b87aU, 0x997a978688896969U,
  0xbaa743b26a7a7668U, 0x4b4443a7b7765668U, 0x6689789aa6677788U, 0x99a57aab87988bc9U,
  0x996856b67b7899a9U, 0xd89868a49a8a6787U, 0x68997789749a8a59U, 0xb87a5b97a9c776a6U,
  0x885a898a86869875U, 0x7896a89b89679667U, 0x5848b9ca74767799U, 0x6888896578667979U,
  0x9a95aaac7d879ac8U, 0x986898988c7aa989U, 0x6979a89887678798U, 0x9b6955a77976a6aaU,
  0xa98a97a69a984949U, 0x888887888878ba88U, 0x8888888888888888U, 0x8788888888888887U,
  0x89995877a7898888U, 0x9746a78bbdc9a9a3U, 0x8a8778988a979789U, 0x8a87a9a77a968876U,
  0xa67986989a888a97U, 0x98986699786a9746U, 0x78787798888b4665U, 0x78878888a8ba7a87U,
  0x78999898cb9a7c6bU, 0xab78798a7a868a9bU, 0x6a8a9758946a9786U, 0x879a7874b899a87aU,
  0x97ab9a6799abaa56U, 0x8c6ba9b899865956U, 0x79ac7998c699844aU, 0x6733a488a9a98799U,
  0x837886666a375587U, 0x99898ba79c98648bU, 0xa8899acbab8a6aa9U, 0x87b7bca987a7bb7aU,
  0x987a87a88546a37aU, 0x4865975857997885U, 0x5a89aa6a67878774U, 0x68aad99c9598b96aU,
  0x988b888967887988U, 0x467b9888979a5886U, 0x5655287898a46658U, 0x886a8567878864a6U,
  0x8888888888878888U, 0x8888888888888888U, 0x8a88888888888888U, 0x67a7cb87b6687ba8U,
  0x7a68649a77659b99U, 0x9898696699684586U, 0x74a87a8987999787U, 0x8588867669897867U,
  0x579979a985879458U, 0x967a6564ba995a9aU, 0x35a99b9964896537U, 0x355589764796aa86U,
  0x7676886789858897U, 0x8538658a58654466U, 0x67b4898757497786U, 0x77a9a999ba8b6779U,
  0x985856669c875587U, 0xa8aaaa98aa997967U, 0x8a7656886776ca68U, 0x8b88a69588875785U,
  0xa9aa2596ca6a55a8U, 0xbc5b99768995a898U, 0x997777b7c9a87aa7U, 0x68679768a98a9676U,
  0xa689884863355377U, 0x6637757746998879U, 0xa6bcb979aa86786aU, 0x8758877878789aaaU,
  0x646669254796ab87U, 0x76c7885926139485U, 0xa9a88a596b3784a8U, 0x9aa8a8ca67baa969U,
  0x82679889a899ba79U, 0x8a5a787769788648U, 0x99997889999a6899U, 0x9c97a7ba9a897a47U,
  0x9a659884bba989a8U, 0x87878666aa89b9c7U, 0x58956798998a7a89U, 0x6589655577734883U,
  0x9a4767666695557aU, 0x8aa8889967986663U, 0x99cb7a788849a986U, 0x898987779988a989U,
  0x88996a9786886688U, 0x79593575a798b7cbU, 0x74738a7969b85698U, 0x55949a5644567749U,
  0x859876b8b979659aU, 0x95b79c897979a977U, 0x7968b7787997b985U, 0x78668698986887aaU,
  0x8775869959857778U, 0xba9d64b987689487U, 0x879a79a8989b5a79U, 0x6889888888888888U,
  0x9988797888878988U, 0x8898998898888879U, 0x898579978a567786U, 0x857a67b78a668695U,
  0x66c89b79879b9936U, 0x7853988c77457658U, 0x897aa69a9846a8a5U, 0x9a98779c899785aaU,
  0xb9899579987887baU, 0x988b68abd89c9968U, 0x979a57a8679b795aU, 0x97b9998979987588U,
  0xb869987a9978aa99U, 0x66657579877998aaU, 0x98b7789a99586975U, 0x65899776999a8797U,
  0x537867787365a869U, 0x9a7a777798a9a769U, 0x7967c6a588779babU, 0x998993a9a99a5b34U,
  0x799aa9b79998a889U, 0x64899779ab867796U, 0x467389b966a9b989U, 0x98799696a799976aU,
  0x67a6988a5479c8a9U, 0x99ca877859477946U, 0x694685a58a9899aaU, 0x8b7697788a9898b8U,
  0x8b56877788766997U, 0xb8887b94674558b8U, 0x8697a88a87677876U, 0x8879566a9576a95dU,
  0x68885578897684a7U, 0x44675458886b3854U, 0x6775d74b45935555U, 0xaab887868a38858bU,
  0x97788597cb9c96aaU, 0x5687878866758577U, 0x5a5889a9a8949967U, 0x8757957bca8694c9U,
  0x99aaaa85a9685795U, 0x788c9976a8989a68U, 0xa878a9b97a746ab8U, 0x89dcad89c98caa98U,
  0x9568a9a878987d89U, 0x7487a6977675ba66U, 0x99a89a8568959677U, 0xa769b97caa99a9a8U,
  0x8888888888888888U, 0x8888788888888888U, 0x8888888888888888U, 0x8487669786b88987U,
  0x8a7697a93668aa9aU, 0x8869b99a9a88b9a9U, 0xaa9867b89bc9488aU, 0x6766787588797964U,
  0x88aa888a568a9a87U, 0x689586a978968799U, 0x5799599776a9a868U, 0x447a959a9546a886U,
  0x7948789888746988U, 0xb9767858a788a775U, 0x8887a989a89c8699U, 0x988a77aa6a97999aU,
  0x9c8a99acbb9888a9U, 0xc97a8aa97eaa89eaU, 0x9877a6bbab976887U, 0x8856977749856866U,
  0x798789a898988a66U, 0xd97a7666a979a8baU, 0xa896b9667a9b8973U, 0xab987a575689b77aU,
  0x98656688acac9bacU, 0x97898687aa5677a9U, 0x5ba77854557a9a66U, 0x98999a89b8698b88U,
  0x55b4769b46597789U, 0x7763685565371486U, 0x8d98894896768896U, 0x78766885984577b5U,
  0xa8799b6968676976U, 0xcb24849878889777U, 0x49898787a9486575U, 0x5358977875846998U,
  0x5a88258494687469U, 0x788477da997786bbU, 0x9a8b578695585677U, 0x78a4aaa7b7593697U,
  0x74576679586877b7U, 0xa9ccb9a98b7a8986U, 0x897a93a7c789987bU, 0x69539a8768a79a8aU,
  0x76c6aa35769a77b8U, 0x8897b9776a568997U, 0x664896976987b99aU, 0x9969654687668579U,
  0x44b67763a99b5887U, 0x99b9888a89ba7876U, 0x9565559679595568U, 0x8698787658677788U,
  0x6579576676979869U, 0xa686774856a6a656U, 0x8a96b88689888b88U, 0x6767795996a79988U,
  0x8887a69886468847U, 0x848b9847e88b5a89U, 0x78a7bc9a88aa3856U, 0x6b699577999a6889U,
  0x69999c99bccc9878U, 0xb9b689368b7868baU, 0x768b697798a98988U, 0x6666777477755577U,
  0x7798968768a7a97bU, 0x6855d7777976a788U, 0x675668867674659bU, 0x989a664456755688U,
  0x55697576c6ca6987U, 0x9a789b9697aa4a68U, 0xa8647788bbbbba85U, 0x64a96788879aa77aU,
  0x8594b8a95665ab69U, 0x688978aa7a57876aU, 0x879997b868aa8a99U, 0x79a7a8d96569967cU,
  0xbb76996988798889U, 0x86869979584576aaU, 0x7b8a559c79577398U, 0xb6879856b79a5695U,
  0x7677b88956985985U, 0x8557766968558787U, 0x9688757675578a68U, 0x6aab98888a9969a9U,
  0x5575889989a957a9U, 0x95b75aa9794a4478U, 0x666776694698a979U, 0x8799999b878598baU,
  0x9876baa95aadbb9bU, 0x5aa998796688967aU, 0x86a97b89bac779a5U, 0x8995998978688897U,
  0x43c859787979a677U, 0x8879997978a59985U, 0x5946697885987588U, 0x6c89ca9c67aa9b99U,
  0x6567797698689bcbU, 0x76a6987856688756U, 0x9a88bb9877a69a58U, 0x7796486657888687U,
  0xc89a8a658a896765U, 0x8a9b59a92564776bU, 0x8796987679a98765U, 0x5685ab6989889998U,
  0x9aa76968b68b9995U, 0x797bb8b876776ba8U, 0x8887a97ba7b7a8b8U, 0xb9bb79568b988888U,
  0x9ab6cca986adaa69U, 0x895a779864a7b888U, 0xb9ca98ba895a9a96U, 0x9888988676a86a69U,
  0x699898988877a98aU, 0x67a7887897b8aaadU, 0x8588983556855898U, 0x9b69638677864858U,
  0x8898888888898899U, 0x8888888888888888U, 0x8888888888888888U, 0x7597ac7988888888U,
  0x88b7978866797857U, 0xa87966789c897599U, 0x96668a8677888878U, 0xb98879796a687566U,
  0xa658b99daba9a7b6U, 0x9a767aaa8575897bU, 0x9b7795aa77778a98U, 0xa987698b997a97c8U,
  0x889a9aa9a9ba9967U, 0x9957989977b9ab99U, 0x689446a5789ba788U, 0x6686a688bb996976U,
  0x588989a798769977U, 0x7768756989988864U, 0x88b9a999ba695576U, 0x96bb995978887cabU,
  0xa8b866869a9859a8U, 0x889aa746868b9b45U, 0xa7597974bca8a879U, 0xab8a9888a78a8467U,
  0x89989999d7ca7879U, 0x9a7aa89bac888899U, 0x78976696858a878bU, 0x8db9ba99ca9a5645U,
  0x7776957d7a6856c7U, 0x68c849869879999bU, 0x7578ba688486ba86U, 0x786955a797676858U,
  0x9877996785b78877U, 0x9878775896779557U, 0x9b7a7998765665a7U, 0x5aa8778897899787U,
  0x57669897665699bbU, 0x889746668625967aU, 0x65585365a8569685U, 0x98468a9a79984785U,
  0x8666769abb698676U, 0x999a848777695777U, 0xbc8896ec9b896786U, 0x78746388996886b9U,
  0x57975556858a5883U, 0x99a6bc7577a87896U, 0x5577795875998a78U, 0xa86888897675ac7aU,
  0x95aa866759766977U, 0x6c6679a6a8876965U, 0xaa789976969c7788U, 0x8679756a76769667U,
  0x3865576448764486U, 0x99998888a6979898U, 0xaaaa898dc88bc89aU, 0x66789789997998c8U,
  0x77a98a5959583497U, 0x5aa769a798789778U, 0x7889baa79a6a5798U, 0x897697865a7977abU,
  0x6255875689984975U, 0x6678468767675767U, 0x987569a665996776U, 0x89877688999a6735U,
  0x7757588587785876U, 0x77795a5974596369U, 0x8a787968a7a76375U, 0xb95985985844c9b9U,
  0xbaac59a8989a8a99U, 0x96899b69a8a8aab6U, 0x588477766778a767U, 0xb677875567444745U,
  0x8868887a677896a7U, 0x9974a9a86a8b89aaU, 0x56773633a5687377U, 0x7645888876776832U,
  0x8746959aa8899769U, 0x68987567b8495886U, 0x866a9a5775877766U, 0xb99aa8999aaa9989U,
  0x97a7676698888976U, 0x58476a878666a887U, 0x98aaaaaa89b9a887U, 0x8aaa458898565788U,
  0x87889b99ccaa8967U, 0xaa78b999879888bdU, 0x3c8875b8967786c9U, 0xa887897c7897799aU,
  0x64a7b8487986aa9bU, 0x978777867a689749U, 0x99a6a89a89a59768U, 0x68c576aa9a878674U,
  0x5a9895a989586877U, 0x8a6c46a6ca85879aU, 0x66a9457784787767U, 0x47a789aaac995555U,
  0x8a9a89877a578399U, 0xa99b998885867665U, 0x3455997a4399b9a9U, 0x69895665896884b9U,
  0x97965898b9b76655U, 0x9b75788749569855U, 0x69987aa69976c99bU, 0xad7967989788a968U,
  0xa68aa959787867a7U, 0x9a7a656775769458U, 0x7aa79b4668946578U, 0x4654768886678a98U,
  0x7b66949b87857697U, 0xa99aa99ac87a77abU, 0xaa77aa89988ac889U, 0x6999999696799679U,
  0x43556977a496a96cU, 0x7728678a88997553U, 0xbc958ab98b8a8599U, 0x66b76a7897878865U,
  0x8888a99888686988U, 0x8878878888888888U, 0x8888888888888788U, 0x8a88888888888888U,
  0xba67a778599669b5U, 0x78688965847866a9U, 0x88769998a9899878U, 0x9a5677977a85baa9U,
  0x467a756865576754U, 0x97ab98b886894884U, 0x8986ba677756a877U, 0x976b84baab688889U,
  0x99788bc8999b4aa9U, 0xab6856b879979788U, 0xca7895897a889babU, 0x88998897b8a8a9a9U,
  0x896b88a763355565U, 0x9a977cc7d9a7a99aU, 0x8958a69986989a7aU, 0x85c8aa7a64694888U,
  0x72aa86898956a8aaU, 0x7879a67998a95a87U, 0x67aa56888a9aa68bU, 0x894688858aa57a56U,
  0x6768babaa8855867U, 0x9a977899998ab7b9U, 0x6b77a77895b76a87U, 0x9997ba9ab8a97958U,
  0x8856ab988867766aU, 0x775999aa88847885U, 0xa889a969db69a798U, 0x88888888889a7a9aU,
  0x8888888888888888U, 0x8888888888888888U, 0xa77b946787888888U, 0x658b85aa7799857bU,
  0x6696cb7856867745U, 0x4464a6497898b96aU, 0x8874867a69346559U, 0xdb8b87879b587996U,
  0x8858875468795999U, 0xa9999b9aaa57a799U, 0xaa5a8886ba995ab8U, 0x8979769ab79c6398U,
  0x9788a889a87bca8aU, 0xa98999985aa5b97bU, 0x87888787a9998a89U, 0x5367765888897a87U,
  0x9898649789785687U, 0x97aa873955848997U, 0xb9aa9887a7997979U, 0x76898a99a699ab5aU,
  0x7799577687778576U, 0x4859778756747a98U, 0x84a59a5667996887U, 0x76a66a7856c8aa89U,
  0x7664a545569888a9U, 0x697777987688568aU, 0x9867767767756587U, 0xcacb595699caa998U,
  0xa7b888896b99ab96U, 0x4685698c66698786U, 0x9b8a779896887794U, 0x7865868767889457U,
  0x867698b67976987aU, 0x7976b77987c97a78U, 0x659795a98955b7b9U, 0x99996a7985767477U,
  0x9977659a68a999adU, 0x75778575a8684699U, 0xa869ca8d83aa9b74U, 0xad78757ab98aa9a9U,
  0x98939b8797ab47a8U, 0x6788988876589886U, 0x759899986465897aU, 0x7b9576ab99aa7679U,
  0x9a97365577895987U, 0x8867667764a6ab9aU, 0x67848a97ac877678U, 0x47878767aaab996aU,
  0xa7c59a887a659678U, 0x7ba859878a5686a8U, 0xbbba9bab77a867a9U, 0x85888878788867a8U,
  0x8aaa276789677678U, 0x797975a77847879aU, 0x7787887896667877U, 0x9887889989779889U,
  0x8888788777888899U, 0x68cb687989887788U, 0x6675994866a98975U, 0x899888ba6798bc5cU,
  0x65ba99b79b6886aaU, 0x8a67c86a6a788865U, 0x6777ca9985789769U, 0x89966986c9ac989aU,
  0x79a98a9798998898U, 0x7ba5aaaa9979b97aU, 0x68996775676588a7U, 0x6aba6766987a8886U,
  0x78a794ac767b6698U, 0x5689866885796897U, 0x89874a779949a578U, 0xabbb5766b99a4996U,
  0x56a98a6699b9abc8U, 0x8888775568966a8aU, 0x4687b9a9a79a7976U, 0x5a96baa956a69a9aU,
  0x85c99a9867aca97bU, 0xba86b7687ab87c86U, 0x9b8698ba8767a7abU, 0xa787866865766878U,
  0x9698898679989866U, 0x7488778876788968U, 0x7999888868aa9b4aU, 0x78b78877858a6786U,
  0x9a789a8a57a68a78U, 0xa997895869689699U, 0x666487676886858aU, 0x8997778a5657a977U,
  0x78b7987878a9aa79U, 0xa8bbbababb46a8aaU, 0x77976563ab8a98b9U, 0x764776897749a769U,
  0x9868c97989859a77U, 0x7656965784657669U, 0x8864a66789487578U, 0xa96689885aa9a9abU,
  0x58b5889966599a78U, 0x7a79967b6b787896U, 0x9b9968b9ac59869aU, 0x5864b588c89b7577U,
  0x657678a68a968888U, 0xa657696976675946U, 0x7688669979789769U, 0x788888889998aa86U,
  0x8888888888887788U, 0x8888788888889889U, 0x4876778888888888U, 0x896c66788a899797U,
  0x7679889777c77b66U, 0x768798b9a8b75868U, 0x8985b8ca77a4996aU, 0xba686aa99a598979U,
  0x964776667a877865U, 0x24655858757a8777U, 0x6496777b6594a679U, 0x779765998b685786U,
  0x5665577677b97796U, 0x7a88579688898a77U, 0x68988878a7995688U, 0x6878999797857867U,
  0x89787797a8977a77U, 0x5688788984987589U, 0xa68899a966988b57U, 0xb7895879acba9499U,
  0xa689787899697487U, 0x7499397676a76c97U, 0x795688a733555753U, 0x99868788899898a9U,
  0x757ca567778b7a67U, 0xaa9665aaa7ab7668U, 0x89a889a9778699aaU, 0x96aa86a6849ac7aaU,
  0xa9a989a5799a7874U, 0x5776885676989ba8U, 0x4779b94a53356495U, 0x8855b79a6b88bb8aU,
  0xa99b76999a68b5b8U, 0x56c7997a54888a99U, 0xac8c756589a37b97U, 0x68a699baabb8abc5U,
  0x43a568647955a88aU, 0xa89aa9596783ab33U, 0x9498a98769678aa9U, 0x88967b797657a98aU,
  0x5a7667679a68a978U, 0x89ab5976a76869c4U, 0x9997a946a7769998U, 0x67668a7987b96686U,
  0x9966979a6a46878bU, 0x8599a767d76b77bbU, 0x95ab4755a7778668U, 0xa997a87977b88c75U,
  0x557898ada988ab9aU, 0x97b7a9a648799899U, 0x679667abac99a68bU, 0xcca965968876cb78U,
  0x9b4a79aacbab7898U, 0xbb68b895ca699bd9U, 0x6a98689878aa6a9aU, 0x5435a5899a99789aU,
  0xa8a85678a8799878U, 0x88a8896769a67a99U, 0xc995a68a6a559997U, 0x999988b897b8a9adU,
  0x88887788a99a7a89U, 0x7aa96867979a8789U, 0xb5799c9978949975U, 0x88688a6664877866U,
  0x9659b95766879a78U, 0x6abaa987798a7899U, 0x8849555694656978U, 0x5887476376979c9aU,
  0x66689779aaa9bb35U, 0x4a575577968a5797U, 0x57577997796788a8U, 0x9a9768c7a9757498U,
  0x55a8a89796987a88U, 0x694487a968a8a85bU, 0x789555a687668567U, 0x5887a7a977a67b65U,
  0x48957986778988aaU, 0xb4a87b556ca961a8U, 0x57747b7895a9a978U, 0x96889799b77887a8U,
  0x9b76996869576856U, 0xbb984484aa6b79a8U, 0x4865a85698776799U, 0x9a68b886bb5988a5U,
  0x9abbaa88a968b679U, 0x985869857a86c879U, 0x4898595596a88949U, 0x97c648a689656984U,
  0x85976a64576a7896U, 0x79885688a8799666U, 0x6c75a99987b7ba67U, 0x9878768c79878689U,
  0x99984669a69bb748U, 0x789a99488ba97962U, 0x6987857687876856U, 0x899999a887878784U,
  0x9b98988b99989889U, 0x9b8898cb7a8866a8U, 0x7b8698aa97773589U, 0x9578987b895acad8U,
  0x88977a97577599a9U, 0x8667587475948744U, 0x86aaa874ac887967U, 0x45868699aa587766U,
  0x888889996658a99bU, 0x9a5878897b857a8aU, 0x88568758959b9696U, 0x6668987897849887U,
  0x9a95798a49659969U, 0x64aaa99bab997c97U, 0xaa66b7aa7658a846U, 0x978699878b88b89aU,
  0x859a6785677b86c8U, 0xaa988c6664789947U, 0x76baac68acbabab9U, 0x88c888875969b789U,
  0x8888888888889888U, 0x8888888888889888U, 0x8888888888888888U, 0x85899975a7967987U,
  0x87895b4446795757U, 0x989a9858a88a8895U, 0xaa99476468566576U, 0x7aa9b6dd8a87aca8U,
  0x86884645788766caU, 0x994897788a789748U, 0x93ab877998994543U, 0x7a76a8a78998a965U,
  0x7a676897886677aaU, 0xb99a77999a6a988aU, 0x88999977987a4895U, 0x887635676a868978U,
  0x66495745a779a794U, 0x587a7869a6879575U, 0x9847a6795456ab9bU, 0x669ba76a6a58a386U,
  0x9797987797897b96U, 0x958866778b3a6897U, 0xb9957a795c768b67U, 0x5840a9b8578cab6bU,
  0x856b5465b9569899U, 0x66aab968787587a7U, 0x795976b8c99a78aaU, 0x95b89848b69b9aa8U,
  0x99578768556898a8U, 0x89a7a7667766b589U, 0xa7897698aa876489U, 0xab29749988a99a76U,
  0x458a6885989986a8U, 0x7b966a9a9a9a7648U, 0x7956689a66667864U, 0xa978b97577689bb9U,
  0xaba67abb9689885bU, 0x8b88886889689998U, 0xa5798968b698b877U, 0x86968b656687a737U,
  0x8a77bba798779666U, 0x7987d99988977a77U, 0x7797b86a5349977bU, 0x7a56866643977a57U,
  0x8b698887788698a9U, 0xaa7ca98a77a8889aU, 0x777a9555a9a998a7U, 0x678997caaa798788U,
  0x9a677689c98875a5U, 0x78779a97c8aa98abU, 0x8685777a87769788U, 0xc97499786b8869b7U,
  0x66a8a8979988a9bcU, 0x4574466744666626U, 0x8667668987669756U, 0x7687c96568869977U,
  0x59998a76a978aa88U, 0x769899aa7958d89aU, 0xb66779878ba68887U, 0xca6885ac96788577U,
  0x78c99a596a9ca698U, 0x9997787898a88788U, 0xa588b8aa868b668aU, 0x9678675699687a9aU,
  0x97986769a99a6a66U, 0x6968539978349597U, 0x5978426433666899U, 0x667778879a886688U,
  0x674696669896689bU, 0x576a457765b69778U, 0xa97b77a968666599U, 0xb7687b677ca7658aU,
  0xa7bc995a69869996U, 0x6899998985cb9799U, 0xa7aa996887a79996U, 0x8956a8a7878977abU,
  0x99aa94779b775676U, 0x9ba878a7987c8887U, 0x99798697589788aaU, 0x69a569a866987788U,
  0x57896488a88b99a8U, 0x59967ba598a86578U, 0x96dc8c859898ba89U, 0x7685bb878598988bU,
  0xab7a976764789757U, 0xa78898889a879887U, 0x7988a77894bbac57U, 0x7aa8b8aa88a98899U,
  0x999988a8ab8966baU, 0x3656598889999988U, 0x7867788976576787U, 0x35987689967899a7U,
  0x388569a97865a979U, 0x8b7a68a768958559U, 0x6776545767998797U, 0xb8959e5a465679a6U,
  0x8996aa8b699a99aaU, 0x97778868998a9a68U, 0x889888968bb85766U, 0x777977887678c86bU,
  0x66977676a898aa5aU, 0x6bb77c9555d8cc97U, 0x9aa9899899588986U, 0x66876777885598caU,
  0x968b7966969969a6U, 0x85baa88a9699ca37U, 0x9766568a5975c799U, 0xa7579aaac766a999U,
  0x55879969969b8876U, 0x979a677664875767U, 0x7987688957577679U, 0x9b77aac888968967U,
  0x98779ba97b89b956U, 0x6a43a99a89979867U, 0x999c956899777986U, 0x57a87475c7989a6aU,
  0x8888888888887778U, 0x8888888888888888U, 0x8888888887888888U, 0x87a8899ab98a8888U,
  0xa65895889c797876U, 0x8866769589785467U, 0x9998568857789768U, 0xa677aa7ab7c96b62U,
  0x899a869bc8a8a967U, 0x77776874a7678799U, 0x884598994797aa86U, 0x988aa6a979895869U,
  0x997a869a7788997aU, 0xc5965a965a9b9c9aU, 0x8aa68a7548966769U, 0x786585ba8876b666U,
  0x6397776965a68988U, 0x7476874767468865U, 0x78db7aaa58987857U, 0x9898986977e9bd99U,
  0x8a8467876a567885U, 0x9986b96997677a87U, 0x5786989b6a79b9bbU, 0xcc7a89acab99bba8U,
  0xa9ab999a87b98a8cU, 0x9388547597877756U, 0x859a87778a466877U, 0xab6599995695aa78U,
  0x9aaa598679687a66U, 0x898bc697957abb45U, 0x8986495698767656U, 0x8888888888898888U,
  0x8888888888888888U, 0x8788888888888888U, 0x4a96699879ca7896U, 0xa88986869866678aU,
  0x7a6788784a777888U, 0x5699885686996a99U, 0x97894883a7868975U, 0xa766bb7656576897U,
  0x7b6aa99b99559694U, 0x5775897865b89487U, 0xa79a7458a8596a86U, 0xba977878549978b7U,
  0x7677773555576687U, 0x7666955973778937U, 0x7a9a5b9588a7a898U, 0x74bd6457b67aa975U,
  0xaa768b968a973476U, 0x756776543169a569U, 0x4378236786585766U, 0x49a9aa8975b98a66U,
  0x6688689a7966879cU, 0x898a96b678a88967U, 0x4888879744679749U, 0x784a58a7b7876889U,
  0x99a979998797b886U, 0x7995aab9959ab965U, 0x78c88a6a8786a89bU, 0x8bab89a6b9bb97daU,
  0x7977897585a78989U, 0x798a8986ab98699aU, 0xa77a69979a76c7a9U, 0x98889967767987a7U,
  0x8aa78abb69a97776U, 0x59881320748765a4U, 0x5424686632737936U, 0x9799678b87685667U,
  0x9c8b7ac9ab68a769U, 0x7a88966587a96877U, 0xdb497698889a9c69U, 0x4687a68966686745U,
  0x565787ba7578b99dU, 0xab9b999978b78954U, 0x78887996786699a6U, 0x7a99989999659886U,
  0x75a9a889a6a74775U, 0xa978588679767678U, 0xa8797997863393b5U, 0x7786998878776765U,
  0x9966758766955975U, 0x557368b538756aaaU, 0x868a978788898948U, 0x5579a98a99889889U,
  0x3553988576a47889U, 0x87b8878888648495U, 0x7798887887888889U, 0x9898889878889888U,
  0x8888777899897888U, 0x9a69a68a77668687U, 0x79996899b79a5996U, 0x6668884756a79a97U,
  0x7769a888674597baU, 0xa8989596889c9588U, 0xaaaa9b8998a76769U, 0x7678874579a67a85U,
  0x7676c78768666596U, 0x8958a789ab979bb7U, 0x6879997a989a8579U, 0x7797888847799b79U,
  0x96abcc99bc997a67U, 0xaab9a99aaa9a6999U, 0xa9999a978868797aU, 0xaad79aa9abac8887U,
  0x9978657746988aa9U, 0x78764a787baaa697U, 0x7487aa96a8aa8a77U, 0xb98a9a7b7a779a8bU,
  0x86987a86a79a9579U, 0xb99bcb9896b7885aU, 0x686767a669a8c68bU, 0x6989799787a6868aU,
  0x6666798777a798a7U, 0x78a9988658766757U, 0x874698a899a77957U, 0x7799a99867a58779U,
  0x6867845757a99a77U, 0x6788887a98998886U, 0x5985c78756677a85U, 0xb767894585754a45U,
  0xaa98777797579588U, 0x648bb6b5888645a5U, 0xa889867878837548U, 0x66b75a68985a8889U,
  0xa97976466a559996U, 0x98885511529a6947U, 0x866bb84997959947U, 0x78877754977a656aU,
  0x758ba97c837a8859U, 0x5697675987988859U, 0x6d35995889958b85U, 0x7776687874bc55a5U,
  0x8959679b69968789U, 0x6748579aa89768b7U, 0x89a5a96795a97885U, 0x8888888888988988U,
  0x8888888887888888U, 0x8888888888888888U, 0xbbbba9995985ca8eU, 0xc689ba6aaaab98aaU,
  0x78a889ca86b978a9U, 0x978a777a979a979aU, 0x869a9a7aa7b98b76U, 0x98a8486685876654U,
  0x896a5776a9abb988U, 0x99999a5788695569U, 0xa658988788886999U, 0xca75a3897a898977U,
  0x68799995989979baU, 0x59ab79a6c8888a56U, 0xaa7a7987aa989866U, 0x8367a796665895a8U,
  0x568a9885a5b95837U, 0x4989978765659489U, 0xa9baa8adb96b9968U, 0x76776965557796a9U,
  0x666988a799975864U, 0x3596234598986549U, 0x727768637aa82bd7U, 0x8654576656678735U,
  0xab9968a9698b7878U, 0x79874b8998ab86a6U, 0x5967a87a98998896U, 0x788a7858764595b8U,
  0x8acaa77889a9a775U, 0x978a668776667969U, 0xb9aa87999a9997a8U, 0x7777937777696886U,
  0x776b878879999787U, 0xab9598c877ab999dU, 0x5687b75595889876U, 0x5589877a67855797U,
  0x897855979b895955U, 0x4847979b78849775U, 0x6956696479b688abU, 0x7976c77888868956U,
  0xa6679856a8798947U, 0xa899696595665663U, 0x8a89868aa89a7888U, 0x686995aa9a6598aaU,
  0x5aca9a99b8894599U, 0xa8aa987aa8868698U, 0x7697786666999966U, 0x9c5662a968677877U,
  0xb8598676b8a99888U, 0x96479a5988bba979U, 0x7858b9739aa797b8U, 0x7497899a998b9a78U,
  0x7a76a6b85b88788aU, 0x999988ac9a568adcU, 0x989b77865a798788U, 0x7b66376a97787595U,
  0x68a65776778a7668U, 0xb76766965598ca87U, 0x89733588396986a8U, 0x87d8ab7886588788U,
  0x7a46c6aa6bb7ac79U, 0x8b78889acb8976bbU, 0x86bb9ca5b85a8799U, 0x6997aaaa86988986U,
  0x899a8877a9a899abU, 0x6876bc77969a8776U, 0x8768567787776498U, 0x64ab9999577b7b77U,
  0xa89886487b87b777U, 0x47878aa96a886763U, 0x897796bc95865898U, 0x57b878848c897689U,
  0x99a9a97a66639a57U, 0xada9b698a5ba9948U, 0x77736869858988aaU, 0xb98a887a885979a9U,
  0x79465658aa7965b8U, 0xa8878a988aab59a9U, 0x7977b9aa78677979U, 0x7a47b8a69aa7a89bU,
  0xca86987898976768U, 0x97767b46859a4a73U, 0xa678887939668558U, 0x98899788d88cd9a9U,
  0x6778574678a48956U, 0x69b8667955446455U, 0x57757665775826c5U, 0x987a687976756666U,
  0x987797a7b9cb9898U, 0x96995878a98974baU, 0x677a97b899878867U, 0x569ab88997799857U,
  0x8888bb4675865b99U, 0x8ab8c9a946877979U, 0x974697a895899897U, 0x897a698557887545U,
  0x78a6779699866577U, 0x48997999989b8896U, 0x9989988a8986bb9aU, 0x7546778b98969c7aU,
  0x887697986a879869U, 0x468656796a47895aU, 0x9baa978866885857U, 0x77ca5676536955a9U,
  0x698966568a996a96U, 0x96b768b78a796977U, 0x9789967bb98a5b8aU, 0xa89baa58bb8656baU,
  0x9978796969a99989U, 0x67788a469a8899a9U, 0x8978b9a6998ab779U, 0x86a7cbbb89aba98bU,
  0xca8879a69c7a7656U, 0x768796aa9b77a798U, 0x79777877b7645879U, 0x8888878888879988U,
  0x8888888888888888U, 0x8888888888888889U, 0x86b9988a89888888U, 0x8489686656588879U,
  0x69a6856773798658U, 0x88a978988a97988aU, 0xba7a6977b8458668U, 0x65948d47a4cbb879U,
  0x8699995a57876787U, 0x8a8a6797979a99aaU, 0x8a89477a9aaa8287U, 0x977a949bba9a99a7U,
  0x67aa678766794485U, 0x89a6799b6778a88aU, 0xbbaa5a67969a7676U, 0xb678a958aa988b89U,
  0x7698bda98accbbacU, 0xc79caaa97a6ba97aU, 0xdc99689886bb8852U, 0x7597868ba8ab6968U,
  0xbc77555465568777U, 0x7878978b59898998U, 0x7c97aa9b96889969U, 0x7a765787ab57a5cbU,
  0x9aaabb998bacbbabU, 0x5769ba79989699a9U, 0x86a9899a6b544485U, 0x97ac889796b98958U,
  0x858adb6966ba6d9aU, 0x988968756765669aU, 0x88aa888999798987U, 0x7797a878988a8a96U,
  0xa9b9bab96878ca9aU, 0x8899799b9997b7abU, 0x8a9b9897a68a88ccU, 0x8998b99aa8ba7864U,
  0x785696776688b889U, 0x9a66978a79576487U, 0x74ba578349644656U, 0x6a979c7988969864U,
  0x67a868668989a9a8U, 0x965b765586a67a96U, 0x25739876577a888aU, 0x2265580732457631U,
  0x8b87967958544794U, 0x86896987989778a9U, 0x8778779938859869U, 0xa9884575a6997896U,
  0x9796775998996779U, 0x9899a897988b6877U, 0x9956988878568aaaU, 0x74a55877789a7789U,
  0x6567a64846748923U, 0x8977764377684834U, 0x8668676556868799U, 0x879778768788b978U,
  0x67588569765789a7U, 0x8767856859539587U, 0xa7a5ba8a7a8b8886U, 0x6a8976d9a869c68bU,
  0x6a87a69a76877875U, 0x7867978667989a99U, 0x6387995683786667U, 0x6585997797893858U,
  0x989a798b6a758a79U, 0xca454455583626b5U, 0x67a74538747b7a88U, 0x84a87a488775ba69U,
  0x563747879a7a6599U, 0x9b788a7787987644U, 0x7774a739768789c8U, 0x6696595788789778U,
  0x79bb6a5572b76834U, 0x7759788a89868a97U, 0xb889968bb7778656U, 0x57a9994796895897U,
  0x478948a897579465U, 0x7676998a87a97bbcU, 0x6788b98a895977a8U, 0x6a6979b8a7ba6776U,
  0xa8ac296978aa9597U, 0x8789b8679a76aa87U, 0x6455443588898869U, 0xa378945574567778U,
  0x68994a7555985524U, 0xba6b65a698ba97a9U, 0x98a878789a68a99aU, 0xac787ab99c8bb799U,
  0x9a99994889b9b779U, 0x647b8968a7886788U, 0x964a869676a5a98bU, 0x79696a7885a97978U,
  0x88767aa4b9a76aa7U, 0x756878849a6a6965U, 0x857987a8359b9836U, 0x7697b9998b8a96b6U,
  0x9855a8783a5833a9U, 0xb9c7457689897798U, 0xc658b66a98699bb7U, 0x659699967ab968bbU,
  0x987386aa59675737U, 0x86b6a848a34c5775U, 0x5576547597659478U, 0x976577a935489665U,
  0x6a7866a6875879aaU, 0x867577987ac5779aU, 0x4888978667866798U, 0x876888885876998aU,
  0x7778498969a77568U, 0x67a97765895576b5U, 0x9988696978967899U, 0x97797786997968b6U,
  0x8798768778878756U, 0x96795a957888888bU, 0x5b9b9899a57c8685U, 0x8888776555848588U,
  0x8888888888888888U, 0x8888888888888888U, 0xba89888888888888U, 0x99799896977889a7U,
  0x89baaa8aa7988787U, 0xab697876d87678a6U, 0x789a98ab8b7976baU, 0xdc796897ac669989U,
  0x7a79cabc86aa8aabU, 0x86697679a8669899U, 0x9777626687657a76U, 0x6898a67873886544U,
  0x8888888888888888U, 0x8888888888888888U, 0x8888888888888888U, 0x8888888888888888U,
  0x8888888888888888U, 0x8888888888888888U, 0x8888888888888888U, 0x8888888888888888U,
  0x8888888888888888U, 0x8888888888888888U, 0x8888888888888888U, 0x8888888888888888U,
  0x8888888888888888U, 0x8888888888888888U, 0x8888888888888888U, 0x8888888888888888U,
  0x8888888888888888U, 0x8888888888888888U, 0x8888888888888888U, 0x8888888888888888U,
  0x8888888888888888U, 0x8888888888888888U, 0x8888888888888888U, 0x8888888888888888U,
  0x8888888888888888U, 0x8888888888888888U, 0x8888888888888888U, 0x8888888888888888U,
  0x8888888888888888U, 0x8888888888888888U, 0x8888888888888888U, 0x8888888888888888U,
  0x8888888888888888U, 0x8888888888888888U, 0x8888888888888888U, 0x8888888888888888U,
  0x8888888888888888U, 0x8888888888888888U, 0x8888888888888888U, 0x8888888888888888U,
  0x8888888888888888U, 0x8888888888888888U, 0x8888888888888888U, 0x8888888888888888U,
  0x8888888888888888U, 0x8888888888888888U, 0x8888888888888888U, 0x8888888888888888U,
  0x8888888888888888U, 0x8888888888888888U, 0x8888888888888888U, 0x8888888888888888U,
  0x8888888888888888U, 0x8888888888888888U, 0x8888888888888888U, 0x8888888888888888U,
  0x8888888888888888U, 0x8888888888888888U, 0x8888888888888888U, 0x8888888888888888U,
  0x8888888888888888U, 0x8888888888888888U, 0x8888888888888888U, 0x8888888888888888U,
  0x8888888888888888U, 0x8888888888888888U, 0x8888888888888888U, 0x8888888888888888U,
  0x8888888888888888U, 0x8888888888888888U, 0x8888888888888888U, 0x8888888888888888U,
  0x8888888888888888U, 0x8888888888888888U, 0x8888888888888888U, 0x8888888888888888U,
  0x8888888888888888U, 0x8888888888888888U, 0x8888888888888888U, 0x8888888888888888U,
  0x8888888888888888U, 0x8888888888888888U, 0x8888888888888888U, 0x8888888888888888U,
  0x8888888888888888U, 0x8888888888888888U, 0x8888888888888888U, 0x8888888888888888U,
  0x8888888888888888U, 0x8888888888888888U, 0x8888888888888888U, 0x8888888888888888U,
  0x8888888888888888U, 0x8888888888888888U, 0x8888888888888888U, 0x8888888888888888U,
  0x8888888888888888U, 0x8888888888888888U, 0x8888888888888888U, 0x8888888888888888U,
  0x8888888888888888U, 0x8888888888888888U, 0x8888888888888888U, 0x8888888888888888U,
  0x8888888888888888U, 0x8888888888888888U, 0x8888888888888888U, 0x8888888888888888U,
  0x8888888888888888U, 0x8888888888888888U, 0x8888888888888888U, 0x8888888888888888U,
  0x8888888888888888U, 0x8888888888888888U, 0x8888888888888888U, 0x8888888888888888U,
  0x8888888888888888U, 0x8888888888888888U, 0x8888888888888888U, 0x8888888888888888U,
  0x8888888888888888U, 0x8888888888888888U, 0x8888888888888888U, 0x8888888888888888U,
  0x8888888888888888U, 0x8888888888888888U, 0x8888888888888888U, 0x8888888888888888U,
  0x8888888888888888U, 0x8888888888888888U, 0x8888888888888888U, 0x8888888888888888U,
  0x8888888888888888U, 0x8888888888888888U, 0x8888888888888888U, 0x8888888888888888U,
  0x8888888888888888U, 0x8888888888888888U, 0x8888888888888888U, 0x8888888888888888U,
  0x8888888888888888U, 0x8888888888888888U, 0x8888888888888888U, 0x8888888888888888U,
  0x8888888888888888U, 0x8888888888888888U, 0x8888888888888888U, 0x8888888888888888U,
  0x8888888888888888U, 0x8888888888888888U, 0x8888888888888888U, 0x8888888888888888U,
  0x8888888888888888U, 0x8888888888888888U, 0x8888888888888888U, 0x8888888888888888U,
  0x8888888888888888U, 0x8888888888888888U, 0x8888888888888888U, 0x8888888888888888U,
  0x8888888888888888U, 0x8888888888888888U, 0x8888888888888888U, 0x8888888888888888U,
  0x8888888888888888U, 0x8888888888888888U, 0x8888888888888888U, 0x8888888888888888U,
  0x8888888888888888U, 0x8888888888888888U, 0x8888888888888888U, 0x8888888888888888U,
  0x8888888888888888U, 0x8888888888888888U, 0x8888888888888888U, 0x8888888888888888U,
  0x8888888888888888U, 0x8888888888888888U, 0x8888888888888888U, 0x8888888888888888U,
  0x8888888888888888U, 0x8888888888888888U, 0x8888888888888888U, 0x8888888888888888U,
  0x8888888888888888U, 0x8888888888888888U, 0x8888888888888888U, 0x8888888888888888U,
  0x8888888888888888U, 0x8888888888888888U, 0x8888888888888888U, 0x8888888888888888U,
  0x8888888888888888U, 0x8888888888888888U, 0x8888888888888888U, 0x8888888888888888U,
  0x8888888888888888U, 0x8888888888888888U, 0x8888888888888888U, 0x8888888888888888U,
  0x8888888888888888U, 0x8888888888888888U, 0x8888888888888888U, 0x8888888888888888U,
  0x8888888888888888U, 0x8888888888888888U, 0x8888888888888888U, 0x8888888888888888U,
  0x8888888888888888U, 0x8888888888888888U, 0x8888888888888888U, 0x8888888888888888U,
  0x8888888888888888U, 0x8888888888888888U, 0x8888888888888888U, 0x8888888888888888U,
  0x8888888888888888U, 0x8888888888888888U, 0x8888888888888888U, 0x8888888888888888U,
  0x8888888888888888U, 0x8888888888888888U, 0x8888888888888888U, 0x8888888888888888U,
  0x8888888888888888U, 0x8888888888888888U, 0x8888888888888888U, 0x8888888888888888U,
  0x8888888888888888U, 0x8888888888888888U, 0x8888888888888888U, 0x8888888888888888U,
  0x8888888888888888U, 0x8888888888888888U, 0x8888888888888888U, 0x8888888888888888U,
  0x8888888888888888U, 0x8888888888888888U, 0x8888888888888888U, 0x8888888888888888U,
  0x8888888888888888U, 0x8888888888888888U, 0x8888888888888888U, 0x8888888888888888U,
  0x8888888888888888U, 0x8888888888888888U, 0x8888888888888888U, 0x8888888888888888U,
  0x8888888888888888U, 0x8888888888888888U, 0x8888888888888888U, 0x8888888888888888U,
  0x8888888888888888U, 0x8888888888888888U, 0x8888888888888888U, 0x8888888888888888U,
  0x8888888888888888U, 0x8888888888888888U, 0x8888888888888888U, 0x8888888888888888U,
  0x8888888888888888U, 0x8888888888888888U, 0x8888888888888888U, 0x8888888888888888U,
  0x8888888888888888U, 0x8888888888888888U, 0x8888888888888888U, 0x8888888888888888U,
  0x8888888888888888U, 0x8888888888888888U, 0x8888888888888888U, 0x8888888888888888U,
  0x8888888888888888U, 0x8888888888888888U, 0x8888888888888888U, 0x8888888888888888U,
  0x8888888888888888U, 0x8888888888888888U, 0x8888888888888888U, 0x8888888888888888U,
  0x8888888888888888U, 0x8888888888888888U, 0x8888888888888888U, 0x8888888888888888U,
  0x8888888888888888U, 0x8888888888888888U, 0x8888888888888888U, 0x8888888888888888U,
  0x8888888888888888U, 0x8888888888888888U, 0x8888888888888888U, 0x8888888888888888U,
  0x8888888888888888U, 0x8888888888888888U, 0x8888888888888888U, 0x8888888888888888U,
  0x8888888888888888U, 0x8888888888888888U, 0x8888888888888888U, 0x8888888888888888U,
  0x8888888888888888U, 0x8888888888888888U, 0x8888888888888888U, 0x8888888888888888U,
  0x8888888888888888U, 0x8888888888888888U, 0x8888888888888888U, 0x8888888888888888U,
  0x8888888888888888U, 0x8888888888888888U, 0x8888888888888888U, 0x8888888888888888U,
  0x8888888888888888U, 0x8888888888888888U, 0x8888888888888888U, 0x8888888888888888U,
  0x8888888888888888U, 0x8888888888888888U, 0x8888888888888888U, 0x8888888888888888U,
  0x8888888888888888U, 0x8888888888888888U, 0x8888888888888888U, 0x8888888888888888U,
  0x8888888888888888U, 0x8888888888888888U, 0x8888888888888888U, 0x8888888888888888U,
  0x8888888888888888U, 0x8888888888888888U, 0x8888888888888888U, 0x8888888888888888U,
  0x8888888888888888U, 0x8888888888888888U, 0x8888888888888888U, 0x8888888888888888U,
  0x8888888888888888U, 0x8888888888888888U, 0x8888888888888888U, 0x8888888888888888U,
  0x8888888888888888U, 0x8888888888888888U, 0x8888888888888888U, 0x8888888888888888U,
  0x8888888888888888U, 0x8888888888888888U, 0x8888888888888888U, 0x8888888888888888U,
  0x8888888888888888U, 0x8888888888888888U, 0x8888888888888888U, 0x8888888888888888U,
  0x8888888888888888U, 0x8888888888888888U, 0x8888888888888888U, 0x8888888888888888U,
  0x8888888888888888U, 0x8888888888888888U, 0x8888888888888888U, 0x8888888888888888U,
  0x8888888888888888U, 0x8888888888888888U, 0x8888888888888888U, 0x8888888888888888U,
  0x8888888888888888U, 0x8888888888888888U, 0x8888888888888888U, 0x978b8a8488888888U,
  0x79baab688879b569U, 0x4755899a88aabd89U, 0x455896cc7784987aU, 0x8376a9887887a996U,
  0x897556b734686699U, 0x79aa9b8999599588U, 0x9a6999a889a8ba9aU, 0xb56b4298a8767666U,
  0x5777685588767634U, 0x98aa4579a8458788U, 0x768bc9899bb869a4U, 0xb889997874a6a967U,
  0xa5668a7557979697U, 0x95789858a9664473U, 0x5795884666884286U, 0x8c8993678a555987U,
  0x66968b787b9979a6U, 0x88584331a7768b75U, 0x8888888888888888U, 0x8888888888888888U,
  0x8588888888888888U, 0x875867974645a85cU, 0xa9aa989489997587U, 0x86b9979789977a89U,
  0x9a979759579a7597U, 0x667a868699696889U, 0x8786778995756687U, 0x78678678795758a8U,
  0x8998ba7b968a7a89U, 0x765986899886a8aaU, 0xa8a86798a9999948U, 0x7578b76797688a67U,
  0x77a96a5485ca7675U, 0xb86aa77649956a83U, 0x788989a878978989U, 0xa79786678947a866U,
  0x8879c6a7cb795795U, 0x3627a765768887aaU, 0x9944b99a76aaba8cU, 0x9a96998a54b6abaaU,
  0x7866975845677656U, 0x6a6866a895686b88U, 0xa6989997996a7496U, 0x9d988aa77c8a5888U,
  0x9879666765898ab9U, 0x9885ba5689979a67U, 0x6996b6cba669aa67U, 0xb9ab7a98999b9968U,
  0x6b9a99787a699a98U, 0x955a5854b86988a7U, 0x6ba8568698897766U, 0x46b69768b768988aU,
  0x63689a5b75a8a999U, 0x87a7594547788598U, 0x547897762434d788U, 0x8989acaa69988948U,
  0x677789bd7798ab67U, 0x9a74785686569876U, 0x4364979989587697U, 0x8875668746444583U,
  0xa989659787799878U, 0x8695a98787b99877U, 0x997879b7b98aa888U, 0x8a97578497897689U,
  0xbb8b897875458497U, 0x8b7aa588ba8988b9U, 0x7957895467889787U, 0x987999ba7b767a99U,
  0x8987a7d877a8976aU, 0xb6a86a479b8796aaU, 0xa97c89b899576988U, 0x11a4585879899897U,
  0x9787565878779638U, 0x8889888887888888U, 0x8988988898797788U, 0x8889789879898889U,
  0x87678398ba8a7998U, 0xb789855a99a79a9bU, 0x3475776877695789U, 0xbaaa4988a8899559U,
  0x9588978a89778a87U, 0x67a8988499885672U, 0x777679a799a5d98bU, 0x7576776468899896U,
  0xbb7a8a6884968476U, 0xa7668798978758a8U, 0x8a898a9885987499U, 0x8688594587b88976U,
  0x76666896a9996843U, 0x8978956b89768783U, 0x969675677b69a699U, 0x56988a46887968abU,
  0x6497aa8a77878637U, 0x96aabd6899a8c976U, 0x868877898978a979U, 0x8a9569a548899868U,
  0xabad9787cb9b6852U, 0x5276588ada9b8a99U, 0x8a95a7889b896766U, 0x8a79a59c68577965U,
  0x9766888a87997997U, 0x689c856996669aa9U, 0x86869b8867b88ba8U, 0x8a5556682365a546U,
  0x6853467476555665U, 0xaa793a836b778597U, 0x76987a7889aa4688U, 0xab46549767b67798U,
  0xaa875ab7aa692553U, 0x54a85886a76a7777U, 0x8766849676868647U, 0xa479988785965748U,
  0x939b9d7847a9a87bU, 0xa98967a977a66768U, 0x7887949796a79986U, 0xaa9575a7aa8a65a9U,
  0x6aaaa7a7a8698699U, 0x8b5654a7889798a9U, 0x4ac86a5693868657U, 0x997a8b9899997a7aU,
  0x59678776977c65a7U, 0x7977567697775658U, 0x8888887888888888U, 0x8888888888888888U,
  0x8888888888888888U, 0xbb9779b79c79a68aU, 0x987755968b9a6797U, 0x79869c6887976416U,
  0x959b8a78788bbaaaU, 0x96c86b65aca77979U, 0x89979a3524488736U, 0x566478988886b799U,
  0x8888775ba9589a95U, 0x96964765667b89b9U, 0x4238978898985763U, 0x76a9ab2a44489547U,
  0x4454a98b63968b7aU, 0x67b8877755196455U, 0x7875897955877b69U, 0x89c9bc7676977937U,
  0x588879b9aabbba87U, 0x33767b8784a6998aU, 0x87878859a9779b95U, 0x655498777a757867U,
  0x66877987a9795769U, 0x99a8b87486476179U, 0xb998b99aa6989b8aU, 0x988a876879889a9bU,
  0x78898a86a5a65857U, 0x5787577559618859U, 0x7768678965879875U, 0x8a8599798a988756U,
  0x4595a9b96999486aU, 0x877666ab77967779U, 0x9a9a6d7899b985c9U, 0x98bb999a88879698U,
  0x976c9996a8ba6b64U, 0x8aa56b6a8acaa489U, 0x99aab85688997d74U, 0x878999879acb9876U,
  0x55d8697678988a68U, 0x96aa97995a99a966U, 0xa6cc98685796a978U, 0x8679995996759965U,
  0x77755565688645a9U, 0x868a897877a87886U, 0x7788778878776698U, 0x7996859665537799U,
  0xa7796768987a7778U, 0x87967b97a8998999U, 0x756852786476d968U, 0x897949c86987979aU,
  0x58a88b8998a89a96U, 0x8ca87aaa89aa98aaU, 0x8c76a7a8a9898477U, 0x67a78899ba565687U,
  0x68889caa7aa7a66aU, 0x8859a77966667779U, 0x78c3855279888898U, 0x8986a7a967778967U,
  0xbabe7a86b97b9479U, 0x89677aa9887a8878U, 0xa8a99596b9749866U, 0x7b888779968686a7U,
  0x4656a75965757b88U, 0xa9a88a86597779a8U, 0x89888798a9b99a89U, 0xac8a368a78987789U,
  0x758569679aaa8965U, 0x98686699998689a7U, 0xa7b9894679a67765U, 0x7587865899866667U,
  0x7589566686996969U, 0x4888976a46896956U, 0x7657778788687678U, 0x5778769696569779U,
  0x7695676944687789U, 0xc86986585a578988U, 0x7999898997865889U, 0xac68877588b9ab97U,
  0x69a67854b99b5566U, 0x888878b888569b7aU, 0xa95776879b569799U, 0x796bc9939ab89a68U,
  0x65585a6488a99868U, 0xa8a66a9795b76735U, 0x668a758587888c77U, 0x7887996867b36746U,
  0x958795879a636865U, 0xa658697767658469U, 0x68aaab7a69a99987U, 0x7665777868649788U,
  0x8976737587884868U, 0x7698776675aa5778U, 0x8956a97888a57678U, 0xb6aa969b7a67a67bU,
  0xa69b88788a8bba9cU, 0x666447755797a98bU, 0x993853b686955699U, 0xa858766587878842U,
  0x8a757766574866a5U, 0x76799897897895a8U, 0x9a59848568428464U, 0x8898576778868743U,
  0xa87d7757c9989babU, 0x48a5a99a96bb6663U, 0x8468871953a39899U, 0x7899896566759689U,
  0x985a56878667aa79U, 0x6a3697d97687a99aU, 0x7b1547a76572b788U, 0x97a94837c6597668U,
  0xaa969a79a9697664U, 0xdc5463ac89599579U, 0x998baa46a76958b6U, 0x9a8a6ab798a7a88aU,
  0x4ba989b8698ab99bU, 0x8857b9aa8685ba87U, 0x88888888888886a8U, 0x8888888888888888U,
  0x8888888888888888U, 0xa848448588888888U, 0x8a9797b98aa99898U, 0x9789a79867589a89U,
  0x8688668989a8889aU, 0x55768767a9a75675U, 0xaaa9b6999a6a6956U, 0x9b8977988888a8a7U,
  0x8594a684789a7899U, 0x7797b68775588a57U, 0xb958748a65978969U, 0x28964a8655578597U,
  0x6667666876b58965U, 0xa7993a6747a65296U, 0xa787789899895578U, 0x7977aa8676867868U,
  0x68678777a76a6457U, 0x379577799987a87bU, 0x789c8998876a7a4aU, 0xa5987aa98a878889U,
  0x6999958a95987a75U, 0xa9b7ba999ca87ab8U, 0x6767439668367888U, 0x8796579678866385U,
  0x87579997699a8b87U, 0x7589659a67739799U, 0xa6ba8c577a588687U, 0x78a7685568bb7764U,
  0x99999858785a6986U, 0x98b99b874aa877c9U, 0x6677a77a7558a858U, 0x566786b87876787aU,
  0x6649555488746468U, 0x7397578a767a7365U, 0xaabc8a7556674497U, 0x8b8a8ab9897796abU,
  0x988aa98997658765U, 0x8747659568828699U, 0x3766ba7894ca5dbbU, 0x4967989995897588U,
  0x58a78887667888aaU, 0xaa78996a45978855U, 0x982355a8aa7776baU, 0x7a9868b969986587U,
  0x9ab9b559b79a6798U, 0x8489b7a9997668a9U, 0x57667866a86668a9U, 0xa9a9aaba99ba7956U,
  0x7888ba7a98989b8aU, 0x66995698766686a9U, 0xb5a7888758766685U, 0x8bc9a888676a7636U,
  0xaa8bba98ab788aabU, 0x597878a998989988U, 0x987988a8aaa98a89U, 0xa837859799668777U,
  0xb7997568ab87a687U, 0x8477597778aa7b95U, 0x99798768796797b7U, 0x546866ba8a6878a7U,
  0x7796ba6967899859U, 0x68b6ba688a78b7bbU, 0x67789b99567567baU, 0xa8ca98886a45a49aU,
  0xc9898888aa9a99a9U, 0x9999ad9aba99b59aU, 0x73779586b88969a8U, 0x8a767786989a7867U,
  0xab66598798877877U, 0x8b87999a8b897a97U, 0x8999b689a89a56b9U, 0x6948a5aa78768699U,
  0x9b8abd98a7964776U, 0x5a6987ba7ba9c89dU, 0x778566ba26856a85U, 0x8376b9ad6ac999b8U,
  0x7676a7845c7398a5U, 0x66a98aa558677759U, 0x8aabdcababa87a98U, 0x6468bb3573b488a8U,
  0x89a89bc966647655U, 0x83a8cc7988cba99aU, 0x8956979b8578969cU, 0x9b9a9aa969869799U,
  0xa68565b86a56a7bdU, 0xa77a68989a7966a5U, 0x9a58997875988746U, 0x56876766a759b5a8U,
  0x7897689967496668U, 0xb8aa466799386867U, 0x8898955655869b85U, 0x7797976a56978877U,
  0x99a6aaab87888797U, 0xbbc99986999aaaa9U, 0x86496599a6689978U, 0xa97976759a5335aaU,
  0x895aa7a7a9aa9868U, 0x79a8b8898778878aU, 0x8a689989a999adacU, 0x7aaaaa68d46bc77aU,
  0x67898889a9ba8976U, 0x86aa889677599876U, 0x97cbaa8a55a8987aU, 0xa995657868c98b68U,
  0x977b9886b78947a7U, 0x885a66886698b66aU, 0x5aa78a9845956666U, 0x6868987698858867U,
  0x8789669888987846U, 0x8476784489a87895U, 0x7656548556575466U, 0x9bb7888698b94554U,
  0x67a7aa95b9b89886U, 0x5687959889588697U, 0x8888555865766665U, 0x8888888888888888U,
  0x8888888888888888U, 0x9985888888888888U, 0xa878a78899697bbbU, 0xb88788a99b899b78U,
  0x8897a98796acab49U, 0x44756a98aa886898U, 0x7997899978dc9798U, 0x5975dbba7696bc69U,
  0x4a76787869764897U, 0x3295675354a866aaU, 0x564675a769a76626U, 0x8888888888888888U,
  0x8888888888888888U, 0x8888888888888888U, 0x8888888888888888U, 0x8888888888888888U,
  0x8888888888888888U, 0x8888888888888888U, 0x8888888888888888U, 0x8888888888888888U,
  0x8888888888888888U, 0x8888888888888888U, 0x8888888888888888U, 0x8888888888888888U,
  0x8888888888888888U, 0x8888888888888888U, 0x8888888888888888U, 0x8888888888888888U,
  0x8888888888888888U, 0x8888888888888888U, 0x8888888888888888U, 0x8888888888888888U,
  0x8888888888888888U, 0x8888888888888888U, 0x8888888888888888U, 0x8888888888888888U,
  0x8888888888888888U, 0x8888888888888888U, 0x8888888888888888U, 0x8888888888888888U,
  0x8888888888888888U, 0x8888888888888888U, 0x8888888888888888U, 0x8888888888888888U,
  0x8888888888888888U, 0x8888888888888888U, 0x8888888888888888U, 0x8888888888888888U,
  0x8888888888888888U, 0x8888888888888888U, 0x8888888888888888U, 0x8888888888888888U,
  0x8888888888888888U, 0x8888888888888888U, 0x8888888888888888U, 0x8888888888888888U,
  0x8888888888888888U, 0x8888888888888888U, 0x8888888888888888U, 0x8888888888888888U,
  0x8888888888888888U, 0x8888888888888888U, 0x8888888888888888U, 0x8888888888888888U,
  0x8888888888888888U, 0x8888888888888888U, 0x8888888888888888U, 0x8888888888888888U,
  0x8888888888888888U, 0x8888888888888888U, 0x8888888888888888U, 0x8888888888888888U,
  0x8888888888888888U, 0x8888888888888888U, 0x8888888888888888U, 0x8888888888888888U,
  0x8888888888888888U, 0x8888888888888888U, 0x8888888888888888U, 0x8888888888888888U,
  0x8888888888888888U, 0x8888888888888888U, 0x8888888888888888U, 0x8888888888888888U,
  0x8888888888888888U, 0x8888888888888888U, 0x8888888888888888U, 0x8888888888888888U,
  0x8888888888888888U, 0x8888888888888888U, 0x8888888888888888U, 0x8888888888888888U,
  0x8888888888888888U, 0x8888888888888888U, 0x8888888888888888U, 0x8888888888888888U,
  0x8888888888888888U, 0x8888888888888888U, 0x8888888888888888U, 0x8888888888888888U,
  0x8888888888888888U, 0x8888888888888888U, 0x8888888888888888U, 0x8888888888888888U,
  0x8888888888888888U, 0x8888888888888888U, 0x8888888888888888U, 0x8888888888888888U,
  0x8888888888888888U, 0x8888888888888888U, 0x8888888888888888U, 0x8888888888888888U,
  0x8888888888888888U, 0x8888888888888888U, 0x8888888888888888U, 0x8888888888888888U,
  0x8888888888888888U, 0x8888888888888888U, 0x8888888888888888U, 0x8888888888888888U,
  0x8888888888888888U, 0x8888888888888888U, 0x8888888888888888U, 0x8888888888888888U,
  0x8888888888888888U, 0x8888888888888888U, 0x8888888888888888U, 0x8888888888888888U,
  0x8888888888888888U, 0x8888888888888888U, 0x8888888888888888U, 0x8888888888888888U,
  0x8888888888888888U, 0x8888888888888888U, 0x8888888888888888U, 0x8888888888888888U,
  0x8888888888888888U, 0x8888888888888888U, 0x8888888888888888U, 0x8888888888888888U,
  0x8888888888888888U, 0x8888888888888888U, 0x8888888888888888U, 0x8888888888888888U,
  0x8888888888888888U, 0x8888888888888888U, 0x8888888888888888U, 0x8888888888888888U,
  0x8888888888888888U, 0x8888888888888888U, 0x8888888888888888U, 0x8888888888888888U,
  0x8888888888888888U, 0x8888888888888888U, 0x8888888888888888U, 0x8888888888888888U,
  0x8888888888888888U, 0x8888888888888888U, 0x8888888888888888U, 0x8888888888888888U,
  0x8888888888888888U, 0x8888888888888888U, 0x8888888888888888U, 0x8888888888888888U,
  0x8888888888888888U, 0x8888888888888888U, 0x8888888888888888U, 0x8888888888888888U,
  0x8888888888888888U, 0x8888888888888888U, 0x8888888888888888U, 0x8888888888888888U,
  0x8888888888888888U, 0x8888888888888888U, 0x8888888888888888U, 0x8888888888888888U,
  0x8888888888888888U, 0x8888888888888888U, 0x8888888888888888U, 0x8888888888888888U,
  0x8888888888888888U, 0x8888888888888888U, 0x8888888888888888U, 0x8888888888888888U,
  0x8888888888888888U, 0x8888888888888888U, 0x8888888888888888U, 0x8888888888888888U,
  0x8888888888888888U, 0x8888888888888888U, 0x8888888888888888U, 0x8888888888888888U,
  0x8888888888888888U, 0x8888888888888888U, 0x8888888888888888U, 0x8888888888888888U,
  0x8888888888888888U, 0x8888888888888888U, 0x8888888888888888U, 0x8888888888888888U,
  0x8888888888888888U, 0x8888888888888888U, 0x8888888888888888U, 0x8888888888888888U,
  0x8888888888888888U, 0x8888888888888888U, 0x8888888888888888U, 0x8888888888888888U,
  0x8888888888888888U, 0x8888888888888888U, 0x8888888888888888U, 0x8888888888888888U,
  0x8888888888888888U, 0x8888888888888888U, 0x8888888888888888U, 0x8888888888888888U,
  0x8888888888888888U, 0x8888888888888888U, 0x8888888888888888U, 0x8888888888888888U,
  0x8888888888888888U, 0x8888888888888888U, 0x8888888888888888U, 0x8888888888888888U,
  0x8888888888888888U, 0x8888888888888888U, 0x8888888888888888U, 0x8888888888888888U,
  0x8888888888888888U, 0x8888888888888888U, 0x8888888888888888U, 0x8888888888888888U,
  0x8888888888888888U, 0x8888888888888888U, 0x8888888888888888U, 0x8888888888888888U,
  0x8888888888888888U, 0x8888888888888888U, 0x8888888888888888U, 0x8888888888888888U,
  0x8888888888888888U, 0x8888888888888888U, 0x8888888888888888U, 0x8888888888888888U,
  0x8888888888888888U, 0x8888888888888888U, 0x8888888888888888U, 0x8888888888888888U,
  0x8888888888888888U, 0x8888888888888888U, 0x8888888888888888U, 0x8888888888888888U,
  0x8888888888888888U, 0x8888888888888888U, 0x8888888888888888U, 0x8888888888888888U,
  0x8888888888888888U, 0x8888888888888888U, 0x8888888888888888U, 0x8888888888888888U,
  0x8888888888888888U, 0x8888888888888888U, 0x8888888888888888U, 0x8888888888888888U,
  0x8888888888888888U, 0x8888888888888888U, 0x8888888888888888U, 0x8888888888888888U,
  0x8888888888888888U, 0x8888888888888888U, 0x8888888888888888U, 0x8888888888888888U,
  0x8888888888888888U, 0x8888888888888888U, 0x8888888888888888U, 0x8888888888888888U,
  0x8888888888888888U, 0x8888888888888888U, 0x8888888888888888U, 0x8888888888888888U,
  0x8888888888888888U, 0x8888888888888888U, 0x8888888888888888U, 0x8888888888888888U,
  0x8888888888888888U, 0x8888888888888888U, 0x8888888888888888U, 0x8888888888888888U,
  0x8888888888888888U, 0x8888888888888888U, 0x8888888888888888U, 0x8888888888888888U,
  0x8888888888888888U, 0x8888888888888888U, 0x8888888888888888U, 0x8888888888888888U,
  0x8888888888888888U, 0x8888888888888888U, 0x8888888888888888U, 0x8888888888888888U,
  0x8888888888888888U, 0x8888888888888888U, 0x8888888888888888U, 0x8888888888888888U,
  0x8888888888888888U, 0x8888888888888888U, 0x8888888888888888U, 0x8888888888888888U,
  0x8888888888888888U, 0x8888888888888888U, 0x8888888888888888U, 0x8888888888888888U,
  0x8888888888888888U, 0x8888888888888888U, 0x8888888888888888U, 0x8888888888888888U,
  0x8888888888888888U, 0x8888888888888888U, 0x8888888888888888U, 0x8888888888888888U,
  0x8888888888888888U, 0x8888888888888888U, 0x8888888888888888U, 0x8888888888888888U,
  0x8888888888888888U, 0x8888888888888888U, 0x8888888888888888U, 0x8888888888888888U,
  0x8888888888888888U, 0x8888888888888888U, 0x8888888888888888U, 0x8888888888888888U,
  0x8888888888888888U, 0x8888888888888888U, 0x8888888888888888U, 0x8888888888888888U,
  0x8888888888888888U, 0x8888888888888888U, 0x8888888888888888U, 0x8888888888888888U,
  0x8888888888888888U, 0x8888888888888888U, 0x8888888888888888U, 0x8888888888888888U,
  0x8888888888888888U, 0x8888888888888888U, 0x8888888888888888U, 0x8888888888888888U,
  0x8888888888888888U, 0x8888888888888888U, 0x8888888888888888U, 0x8888888888888888U,
  0x8888888888888888U, 0x8888888888888888U, 0x8888888888888888U, 0x8888888888888888U,
  0x8888888888888888U, 0x8888888888888888U, 0x8888888888888888U, 0x8888888888888888U,
  0x8888888888888888U, 0x8888888888888888U, 0x8888888888888888U, 0x8888888888888888U,
  0x8888888888888888U, 0x8888888888888888U, 0x8888888888888888U, 0x8888888888888888U,
  0x8888888888888888U, 0x8888888888888888U, 0x8888888888888888U, 0x8888888888888888U,
  0x8888888888888888U, 0x8888888888888888U, 0x8888888888888888U, 0x8888888888888888U,
  0x8888888888888888U, 0x8888888888888888U, 0x8956558a88888888U, 0x8b8867a6987a8488U,
  0x88aa9796a876a67cU, 0x5676a83a98799b97U, 0x958b757989a96787U, 0x8797a774899a4675U,
  0x89896a7577798579U, 0x7835256887848887U, 0x699688a6a9764354U, 0xa987798687759b55U,
  0x8856799a96cba979U, 0x879b859878276587U, 0x8ba8995888978777U, 0x698996699887a896U,
  0x49668799769688a7U, 0x7874aa7457869678U, 0x689669968898776aU, 0x697576c67b87999bU,
  0x8867868989567798U, 0x8888888888888888U, 0x8888888888888888U, 0x8888888888888888U,
  0xa85b889798869a56U, 0x9a5a4a88a9a94467U, 0x77a87664aa79a696U, 0xa8767a8aa8999997U,
  0x7499a7988977a89bU, 0x8797698988877858U, 0x8388a97c997989aaU, 0x45858998458a86a7U,
  0x323167482572a848U, 0xaa997a996856a853U, 0xb8768c6964895778U, 0x999797aa9979baa9U,
  0xaa8ab888878758aaU, 0x995888687b8865a9U, 0x79a7a98966897766U, 0x8aa99c9876aa9b8aU,
  0x99878763a8999aa7U, 0x5598a98885b6a955U, 0x9a687a85a89a4b54U, 0x73848887955a8778U,
  0x5b63776548679579U, 0xbb9699988a2464c8U, 0xa6a876b87779a9a8U, 0x4698479758799776U,
  0x87666655a7788a97U, 0x8788576a65689678U, 0x9987757a695787a8U, 0x43765667674775a8U,
  0x9b7866b976897635U, 0x5877688696a97989U, 0x6b66787865475637U, 0x8999696798898799U,
  0x8969784688969b98U, 0xcb99ad85897985a8U, 0x98a9999cb79ba8b8U, 0x6692868a6a98ba9aU,
  0x7857644355744693U, 0x8a7688b8776874bbU, 0x889668b958889b76U, 0x68899bab9a896666U,
  0x7699bc89b9997a58U, 0x976998a868997869U, 0xa66996a88898988aU, 0x2459899887549858U,
  0x576479a7ab549877U, 0xa99859958a8898aaU, 0x74cb88aa998a7985U, 0x9577a83457744a48U,
  0xa8a88a75a877889aU, 0x5476647334554446U, 0x797b548793599666U, 0x76989897989a9a75U,
  0x6888787788887788U, 0x8888788888889998U, 0x8887898887889988U, 0x95799a988989aa78U,
  0x758558b9798a8898U, 0x5577686855699764U, 0x9744588a9a889678U, 0x8679666579695396U,
  0x6998aa9ba8969787U, 0x9999768899997985U, 0x798549658768758aU, 0x99a959a678666766U,
  0x8b879a7aa9aa94bbU, 0x9aa9879987b9a98aU, 0x8677a8699a5999b9U, 0x68a6789867796953U,
  0x585496688688a687U, 0xa9887489a8777897U, 0x977ba95677976558U, 0x8998a598b857b968U,
  0x6a66c799cb6a9889U, 0x7b7899a77966bab8U, 0x7666998899a56867U, 0x7744899786896897U,
  0x874794b9b976a6c8U, 0x886675ba77787654U, 0x9b87885445966786U, 0x8898889889877899U,
  0x6a7898a9a7a989a8U, 0xa8b878979b889699U, 0x9867c86255555642U, 0x89677aa79a6a868bU,
  0x678769659a788899U, 0x55517887779a8868U, 0x9669954948638789U, 0x898a885967967865U,
  0x649a58449698879aU, 0x878987655789b947U, 0x6688985957545476U, 0xaa9b6a7975695686U,
  0x7899956779baa8aaU, 0x478775743a885a8bU, 0x868a9834a79ab856U, 0x67a6788878676999U,
  0x89777a9ba999ab88U, 0x76576677796489a7U, 0x688964a885787789U, 0x77866a4767767666U,
  0x98ab99aca98ad968U, 0x8898888888888888U, 0x8888888788888888U, 0x8888888888888888U,
  0x77899a9bba96978aU, 0x7988b7a735944694U, 0xbbaa6a95778aa88aU, 0x655883a86a8558b9U,
  0x8495ba66b9787a86U, 0x7777749754896797U, 0xa9677898a898ab99U, 0x499a776a67a88687U,
  0x799a66a89697b669U, 0xaa8979978c995888U, 0x768aa98b98998979U, 0x9787cb9b99997795U,
  0xb9bca8879a98ab9aU, 0x6a47646958558599U, 0x9779888366644979U, 0x588765a678876a7aU,
  0x8446886367957986U, 0x6a8888aa7666c669U, 0xa679a79aab866898U, 0x35458659949b8857U,
  0xaacbabaabeab9765U, 0x766987a99aaccaadU, 0x787867889a996999U, 0x632696446678a774U,
  0x7469797b51779646U, 0x9977888776ba8757U, 0x6677685675978467U, 0x8a87783666665585U,
  0xa9557867247366b9U, 0x788996b5995656baU, 0xa98b7a7767787776U, 0x8a8d9887a9a78b66U,
  0x5641977925716864U, 0x6a99643397096696U, 0x989b77d8ce9a69aaU, 0xa99b678cb9a88779U,
  0x58495466886756c7U, 0x995878ba8995a88aU, 0x8885798a7679a7a7U, 0xbb5596757755b97bU,
  0x78c976baeb9da89cU, 0x643676896776a855U, 0x78a7566369486227U, 0x7a886798766897baU,
  0x77776688888757b7U, 0xa5ac677888676886U, 0x85b87696a88ba9aaU, 0x79a8657978769b56U,
  0x4765964647666878U, 0x9766698848549a98U, 0x7a997577667799a7U, 0x68a29478587865acU,
  0x8c8b7867a88869aaU, 0x6767a7b6b7998787U, 0x67898977a7a76858U, 0xa8998d679aa99877U,
  0x89aaa9a8aa597998U, 0x9ab8a9a9a9899a5aU, 0x8a58a56a4786acabU, 0x44a75876989667aaU,
  0x99686b667ab78988U, 0xa998886798b99b9aU, 0x5886888abd8996aaU, 0x7878b87798446688U,
  0x78999ab988866999U, 0x75a97a8897997a65U, 0x7876675666646778U, 0x9699667989597698U,
  0x5667ac6798a4985aU, 0x6985987a9689899aU, 0x779a8897373354a9U, 0xd67baab77ba88a78U,
  0x79899788898aa57aU, 0xb98896a8a8698488U, 0xa7654757e9497985U, 0x6978568876586798U,
  0x699aca7767577576U, 0x946a9957ba985a96U, 0x4438766973976768U, 0x5998d87735a69738U,
  0x89779b28989c48abU, 0x66ab99a8b9aa58a9U, 0x98ac8b8988a79677U, 0x76588968a7a97a86U,
  0x798997996b758597U, 0x7877b88a9a776998U, 0x8a5966ba7a78987aU, 0xa999757a67858897U,
  0x9ba6bb9a46884886U, 0x48957947a598a899U, 0x8566773686889b9aU, 0x87aa9769a78a8826U,
  0x885a77665988aa89U, 0x9959699788759689U, 0x4674558466547368U, 0x76739a6964978889U,
  0x7995375557579477U, 0xb97a6895a98989a7U, 0xa66778984665b889U, 0x779a657374785646U,
  0xca8ca86978766a69U, 0x98c97a5ab89a7bbbU, 0x9b7799c598876899U, 0x8869559888899699U,
  0x7779968978782997U, 0xa8a688aa86a8996aU, 0xaa8997db8988c8a9U, 0x9869699acb8885a5U,
  0x899886947a956996U, 0x9bbb695896a97864U, 0x9957c989979688baU, 0x86662686576573caU,
  0x4b75679498882676U, 0x8888888888368576U, 0x8888888888888888U, 0x8888888888888888U,
  0x76869b6788888888U, 0x96899889679a8777U, 0x6867766867889777U, 0xa78899a9a9765786U,
  0xd9ac669a8a897679U, 0x8789898b89db97bbU, 0x7987a9a89ab89937U, 0xba69788898a9978aU,
  0x697b54d99a89779aU, 0x999989b8abaa88a9U, 0x7984458598796698U, 0x68968896685b7876U,
  0x889ab65b96a9c977U, 0x4466747a79898768U, 0x96589b676a456756U, 0x97887ab98a6a9236U,
  0x9597774766659798U, 0x86788698765988a9U, 0x68b9765656a89866U, 0x5747a7ac7c778867U,
  0x7575977a667897aaU, 0x99a998789799999bU, 0x69758a76997b8b5aU, 0x475658777a895659U,
  0x6a8799885789a867U, 0x6949877777666796U, 0x5699597a879c6997U, 0x9869ba7979759b88U,
  0x8b79867857977a66U, 0x85685599869756a5U, 0x9898998894a66979U, 0x8384886b99a8aab5U,
  0x9878785525986655U, 0x7aa97b9767a8959bU, 0xaa6a747a967ab888U, 0x6b89b8a8ab7a95b7U,
  0xa7a8a7675883a9acU, 0x4465677467864964U, 0x4632936914776676U, 0x578478867769658aU,
  0x9a977a985a553566U, 0xb99aa5778759669aU, 0x97888698797667abU, 0x8cbb9b79a78c6887U,
  0x55868a779899aa99U, 0x4942656655677649U, 0xa7979b98bb794485U, 0x9455a988648b9887U,
  0x4453643753956956U, 0x7b9898971b583255U, 0x99baa9aaa7ad7b87U, 0x8998ab8baa99b9baU,
  0x9988a98977baaba9U, 0x79779a8777685866U, 0x5798a79a9b85a9b9U, 0xa868b86b5699a889U,
  0x89978a7958b96879U, 0x2563665568578679U, 0xabbbaa9b58678653U, 0x73757d9597999aa8U,
  0x6765348417736577U, 0xa9a94c8636367686U, 0x66774888998a7859U, 0x8957789679867786U,
  0xba9b54577639a979U, 0xb869b8875787b8cbU, 0xa8888b9799bb7a97U, 0x9873984522796757U,
  0x8a698987a9256998U, 0x8677767988697786U, 0x986569a6596788a8U, 0x6479797677a5aa89U,
  0x9986b878a98aaa67U, 0x27856665a5ac6987U, 0x9887557699757c97U, 0x98b98a658857557aU,
  0xa98bb89689879a97U, 0x7a84986888968786U, 0x774b99bca995b67aU, 0x883564b9ac66c8caU,
  0x689969878988a99bU, 0x87a78b7963bbb789U, 0x9ca9bb6999987776U, 0x55767768549898cdU,
  0x9a8a7b9a68888998U, 0x86566638b5a7ba9aU, 0x7769898889a79969U, 0x668879875684a389U,
  0xaba79b9a68a678b7U, 0x9a978b99979ac8abU, 0x7c8b75a4b8685a9bU, 0x66997a77a697886aU,
  0x8a9775798b866668U, 0x98b9794774766485U, 0x889758a67997aa78U, 0x76659786679b9aa9U,
  0x8baa55ba89888888U, 0x8a5a9896a6a849a9U, 0x87a98698999c9889U, 0x68a87747986947a6U,
  0x97969aa87a878768U, 0xa79b999a47799957U, 0x988876a949788569U, 0xa6cb889886a69a99U,
  0x7a5a98782997ab24U, 0x8697979599995797U, 0x67988b87a5a78989U, 0x8977a86453667945U,
  0x997888769aa87a89U, 0x67757857a4767764U, 0xa869684876573774U, 0x89767858a98bb986U,
  0x8688a26a8688cb9aU, 0x88988a7689975865U, 0x8878888888888888U, 0x8888787888888888U,
  0x6584888888888887U, 0xb989b77c99589668U, 0x8aaab98976ab7947U, 0xaa9889a98a697688U,
  0xa7b688998b997a7aU, 0x456854655a767776U, 0xaa6895aa8ab86938U, 0x9895a99889988886U,
  0x99a99466587a8934U, 0x67678669a7578987U, 0xa66874b96b99aa8aU, 0x59959679756b4886U,
  0x997abb989998c99aU, 0x884877856b949a6aU, 0x99867765a87896b8U, 0x6787877788866856U,
  0x47bbac6a55849666U, 0x4897797685a68998U, 0x66775a64b7b8cb58U, 0x78a9a8889798b759U,
  0x789699696885aa7aU, 0x8848637697687886U, 0x6586796999a98678U, 0x694497576ba79a66U,
  0x776aaa98a9bc9899U, 0x888a4ab87b9957b6U, 0x97788a5769788577U, 0x7a98a8a9baabb9aaU,
  0x888888888889797aU, 0x8888888888888888U, 0x8888888888888888U, 0x7679867787888888U,
  0x6543566765676888U, 0x6865676747365567U, 0x969ca8989956b775U, 0x7967a96979b89967U,
  0xaa696a85aa97759aU, 0x9887569699a99b86U, 0x88a9988aa7ab9679U, 0x898aa76657778a99U,
  0x67545784a98a5965U, 0xc8aabc9c48449868U, 0x4397aaa5879b899bU, 0x86a87a7778a64423U,
  0x89a88b886873a969U, 0x799969a96aaba88bU, 0x779a874778a6a886U, 0x766634879a789576U,
  0x62a9772758656661U, 0xba87687945756698U, 0xc8875897aa888996U, 0x9987c9bb8ba988b8U,
  0x772366866a888766U, 0x9b95b5bc99978ba9U, 0xa6aa68a7b9ba3a85U, 0x9a978a8775ba4694U,
  0x67756b637a974666U, 0x754476a6998847aaU, 0x6856658685767636U, 0x8999854886688a66U,
  0x6987836793564697U, 0x95899c689a857878U, 0x85a89a898697888aU, 0x77983a9767896757U,
  0x9baa89b9ba87a884U, 0x9a5987dabb9699aaU, 0xaa7566879b775487U, 0x867789a78b759789U,
  0x7688975996465686U, 0x778976ab58258675U, 0x89ab98885abb6886U, 0x7a96aa7989abaa8aU,
  0x8a65766675869a86U, 0x95a8899896699a98U, 0x86898976856a4765U, 0x995789aa8a99a889U,
  0x79b98a75954955b8U, 0x99b97ba968ac9bc9U, 0x99656a8a8987b9b7U, 0x9aa78b6a74b96979U,
  0xabaa9aa7ab6b6788U, 0xa7b48c888989ba9cU, 0xa78894976b6b8887U, 0x88888878b699467aU,
  0x8888889879888888U, 0x8888887998789888U, 0xba79899988888888U, 0xa88967976679aaaaU,
  0xdada56b98a897799U, 0xa89b88a8679a7958U, 0x9898a99977748868U, 0xdca89a888a8a9577U,
  0x678687a8aa99a98bU, 0x8748494866767555U, 0x898a769aa688a787U, 0x76889b69989a68b6U,
  0x686697997957a89aU, 0x9a7799ab9888999aU, 0x9a8c987795878859U, 0x879988b65696a8a8U,
  0x788a7aa769b7a68bU, 0x78a99988aa9aa599U, 0x99968ab999a89a68U, 0x7b8748858a4895baU,
  0x6955886987669775U, 0x987a65789858a89aU, 0x9787b9ba68766699U, 0xab8789d97a7cb8cbU,
  0x7778aa8789969899U, 0x98879a68ab98b8b9U, 0x758899969aa87a88U, 0x8588ab5687a97688U,
  0x9789777858989578U, 0x8578976669869a88U, 0x688a899968989998U, 0x6a7a7687997776a7U,
  0x9979699779965488U, 0x5bb9897856765b66U, 0x867782856a5698a7U, 0xac98a86989995774U,
  0x986758475569b889U, 0x87698884a9a85997U, 0xa8d999e799bba67aU, 0x89bc598669977966U,
  0x57966876aa8b7b99U, 0x647466456588b975U, 0x889a5ab989576955U, 0xd97c68888789a859U,
  0x48a7798a8ac69988U, 0x9999a798747589aaU, 0xb88969aca9997997U, 0x4597867596778786U,
  0x8788888877aa894aU, 0x8888878888888888U, 0x8888888888888888U, 0x3375568488888888U,
  0x697798bc95a8ba69U, 0x9aa97796b889a69aU, 0x6778b49887688989U, 0x6a8889886486975cU,
  0x85b5398988868799U, 0x8798a6475487a666U, 0x49a7996678988a96U, 0x79a89a76b7796958U,
  0xac99ba7a65778497U, 0xabaaabcb99bba79aU, 0xa998cd8b976689a8U, 0x66a8898777cd9979U,
  0x9988876986676a48U, 0x9abb9c9884676867U, 0x6b99778888577796U, 0x97b979b89798a8d9U,
  0x7574744a6876a978U, 0x78a89966897688a3U, 0x999a5885ab768967U, 0x8dba789886598a54U,
  0x9b8789ab896988b9U, 0xa68c796aa955767bU, 0x678974a8677a9598U, 0x78a879899488686aU,
  0x76cb9997697a989bU, 0x99a5a876577799aaU, 0xb899687768897867U, 0x9a58889885866876U,
  0xaa4a99dab879b88bU, 0x8c98859697a98696U, 0xc9699589d86787a9U, 0x69996697d84a758bU,
  0x67789a5665768864U, 0xbabb988a886a8768U, 0x4655585a6878b699U, 0x657898ca98976997U,
  0x89bb89866897877aU, 0x749db769775b8964U, 0x66986b9964867846U, 0x8aa767a7ba9576a4U,
  0x7868886766767997U, 0x9a8499a98b7978a8U, 0x8699998699b9abaaU, 0x69986a9877a8a989U,
  0x7678b77888878898U, 0xba99a98ca998969aU, 0x7a86aba55789999aU, 0x68887896b758598aU,
  0x88788a87b8568767U, 0x78799a66b4ca8669U, 0xb99948957a588577U, 0x997b989898a898a8U,
