/**
  ******************************************************************************
  * @file    network_data_params.c
  * @author  AST Embedded Analytics Research Platform
  * @date    Tue Nov 29 11:38:51 2022
  * @brief   AI Tool Automatic Code Generator for Embedded NN computing
  ******************************************************************************
  * Copyright (c) 2022 STMicroelectronics.
  * All rights reserved.
  *
  * This software is licensed under terms that can be found in the LICENSE file
  * in the root directory of this software component.
  * If no LICENSE file comes with this software, it is provided AS-IS.
  ******************************************************************************
  */

#include "network_data_params.h"


/**  Activations Section  ****************************************************/
ai_handle g_network_activations_table[1 + 2] = {
  AI_HANDLE_PTR(AI_MAGIC_MARKER),
  AI_HANDLE_PTR(NULL),
  AI_HANDLE_PTR(AI_MAGIC_MARKER),
};




/**  Weights Section  ********************************************************/
AI_ALIGNED(32)
const ai_u64 s_network_weights_array_u64[66291] = {
  0xbf2a5574bf49f5f4U, 0xbedf8d7dbf0bf4e7U, 0xbe732947beab366aU, 0xbd86b394be181204U,
  0x3db06ff0bb1b3372U, 0x3e8f11fe3e39f7e6U, 0x3efaa2b13ec3128cU, 0x3f42116c3f1ad0c4U,
  0x8888888888888888U, 0x8888888888888888U, 0x8888888888888888U, 0x8888888888888888U,
  0x8888888888888888U, 0x8888888888888888U, 0x8888888888888888U, 0x8888888888888888U,
  0x8888888888888888U, 0x8888888888888888U, 0x8888888888888888U, 0x8888888888888888U,
  0x8888888888888888U, 0x8888888888888888U, 0x8888888888888888U, 0x8888888888888888U,
  0x8888888888888888U, 0x8888888888888888U, 0x8888888888888888U, 0x8888888888888888U,
  0x8888888888888888U, 0x8888888888888888U, 0x8888888888888888U, 0x8888888888888888U,
  0x8888888888888888U, 0x8888888888888888U, 0x8888888888888888U, 0x8888888888888888U,
  0x8888888888888888U, 0x8888888888888888U, 0x8888888888888888U, 0x8888888888888888U,
  0x8888888888888888U, 0x8888888888888888U, 0x8888888888888888U, 0x8888888888888888U,
  0x8888888888888888U, 0x8888888888888888U, 0x8888888888888888U, 0x8888888888888888U,
  0x8888888888888888U, 0x8888888888888888U, 0x8888888888888888U, 0x8888888888888888U,
  0x8888888888888888U, 0x8888888888888888U, 0x8888888888888888U, 0x8888888888888888U,
  0x8888888888888888U, 0x8888888888888888U, 0x8888888888888888U, 0x8888888888888888U,
  0x8888888888888888U, 0x8888888888888888U, 0x8888888888888888U, 0x8888888888888888U,
  0x8888888888888888U, 0x8888888888888888U, 0x8888888888888888U, 0x8888888888888888U,
  0x8888888888888888U, 0x8888888888888888U, 0x8888888888888888U, 0x8888888888888888U,
  0x8888888888888888U, 0x8888888888888888U, 0x8888888888888888U, 0x8888888888888888U,
  0x8888888888888888U, 0x8888888888888888U, 0x8888888888888888U, 0x8888888888888888U,
  0x8888888888888888U, 0x8888888888888888U, 0x8888888888888888U, 0x8888888888888888U,
  0x8888888888888888U, 0x8888888888888888U, 0x8888888888888888U, 0x8888888888888888U,
  0x8888888888888888U, 0x8888888888888888U, 0x8888888888888888U, 0x8888888888888888U,
  0x8888888888888888U, 0x8888888888888888U, 0x8888888888888888U, 0x8888888888888888U,
  0x8888888888888888U, 0x8888888888888888U, 0x8888888888888888U, 0x8888888888888888U,
  0x8888888888888888U, 0x8888888888888888U, 0x8888888888888888U, 0x8888888888888888U,
  0x8888888888888888U, 0x8888888888888888U, 0x8888888888888888U, 0x8888888888888888U,
  0x8888888888888888U, 0x8888888888888888U, 0x8888888888888888U, 0x8888888888888888U,
  0x8888888888888888U, 0x8888888888888888U, 0x8888888888888888U, 0x8888888888888888U,
  0x8888888888888888U, 0x8888888888888888U, 0x8888888888888888U, 0x8888888888888888U,
  0x8888888888888888U, 0x8888888888888888U, 0x8888888888888888U, 0x8888888888888888U,
  0x8888888888888888U, 0x8888888888888888U, 0x8888888888888888U, 0x8888888888888888U,
  0x8888888888888888U, 0x8888888888888888U, 0x8888888888888888U, 0x8888888888888888U,
  0x8888888888888888U, 0x8888888888888888U, 0x8888888888888888U, 0x8888888888888888U,
  0x8888888888888888U, 0x8888888888888888U, 0x8888888888888888U, 0x8888888888888888U,
  0x8888888888888888U, 0x8888888888888888U, 0x8888888888888888U, 0x8888888888888888U,
  0x8888888888888888U, 0x8888888888888888U, 0x8888888888888888U, 0x8888888888888888U,
  0x8888888888888888U, 0x8888888888888888U, 0x8888888888888888U, 0x8888888888888888U,
  0x8888888888888888U, 0x8888888888888888U, 0x8888888888888888U, 0x8888888888888888U,
  0x8888888888888888U, 0x8888888888888888U, 0x8888888888888888U, 0x8888888888888888U,
  0x8888888888888888U, 0x8888888888888888U, 0x8888888888888888U, 0x8888888888888888U,
  0x8888888888888888U, 0x8888888888888888U, 0x8888888888888888U, 0x8888888888888888U,
  0x8888888888888888U, 0x8888888888888888U, 0x8888888888888888U, 0x8888888888888888U,
  0x8888888888888888U, 0x8888888888888888U, 0x8888888888888888U, 0x8888888888888888U,
  0x8888888888888888U, 0x8888888888888888U, 0x8888888888888888U, 0x8888888888888888U,
  0x8888888888888888U, 0x8888888888888888U, 0x8888888888888888U, 0x8888888888888888U,
  0x8888888888888888U, 0x8888888888888888U, 0x8888888888888888U, 0x8888888888888888U,
  0x8888888888888888U, 0x8888888888888888U, 0x8888888888888888U, 0x8888888888888888U,
  0x8888888888888888U, 0x8888888888888888U, 0x8888888888888888U, 0x8888888888888888U,
  0x8888888888888888U, 0x8888888888888888U, 0x8888888888888888U, 0x8888888888888888U,
  0x8888888888888888U, 0x8888888888888888U, 0x8888888888888888U, 0x8888888888888888U,
  0x8888888888888888U, 0x8888888888888888U, 0x8888888888888888U, 0x8888888888888888U,
  0x8888888888888888U, 0x8888888888888888U, 0x8888888888888888U, 0x8888888888888888U,
  0x8888888888888888U, 0x8888888888888888U, 0x8888888888888888U, 0x8888888888888888U,
  0x8888888888888888U, 0x8888888888888888U, 0x8888888888888888U, 0x8888888888888888U,
  0x8888888888888888U, 0x8888888888888888U, 0x8888888888888888U, 0x8888888888888888U,
  0x8888888888888888U, 0x8888888888888888U, 0x8888888888888888U, 0x8888888888888888U,
  0x8888888888888888U, 0x8888888888888888U, 0x8888888888888888U, 0x8888888888888888U,
  0x8888888888888888U, 0x8888888888888888U, 0x8888888888888888U, 0x8888888888888888U,
  0x8888888888888888U, 0x8888888888888888U, 0x8888888888888888U, 0x8888888888888888U,
  0x8888888888888888U, 0x8888888888888888U, 0x8888888888888888U, 0x8888888888888888U,
  0x8888888888888888U, 0x8888888888888888U, 0x8888888888888888U, 0x8888888888888888U,
  0x8888888888888888U, 0x8888888888888888U, 0x8888888888888888U, 0x8888888888888888U,
  0x8888888888888888U, 0x8888888888888888U, 0x8888888888888888U, 0x8888888888888888U,
  0x8888888888888888U, 0x8888888888888888U, 0x8888888888888888U, 0x8888888888888888U,
  0x8888888888888888U, 0x8888888888888888U, 0x8888888888888888U, 0x8888888888888888U,
  0x8888888888888888U, 0x8888888888888888U, 0x8888888888888888U, 0x8888888888888888U,
  0x8888888888888888U, 0x8888888888888888U, 0x8888888888888888U, 0x8888888888888888U,
  0x8888888888888888U, 0x8888888888888888U, 0x8888888888888888U, 0x8888888888888888U,
  0x8888888888888888U, 0x8888888888888888U, 0x8888888888888888U, 0x8888888888888888U,
  0x8888888888888888U, 0x8888888888888888U, 0x8888888888888888U, 0x8888888888888888U,
  0x8888888888888888U, 0x8888888888888888U, 0x8888888888888888U, 0x8888888888888888U,
  0x8888888888888888U, 0x8888888888888888U, 0x8888888888888888U, 0x8888888888888888U,
  0x8888888888888888U, 0x8888888888888888U, 0x8888888888888888U, 0x8888888888888888U,
  0x8888888888888888U, 0x8888888888888888U, 0x8888888888888888U, 0x8888888888888888U,
  0x8888888888888888U, 0x8888888888888888U, 0x8888888888888888U, 0x8888888888888888U,
  0x8888888888888888U, 0x8888888888888888U, 0x8888888888888888U, 0x8888888888888888U,
  0x8888888888888888U, 0x8888888888888888U, 0x8888888888888888U, 0x8888888888888888U,
  0x8888888888888888U, 0x8888888888888888U, 0x8888888888888888U, 0x8888888888888888U,
  0x8888888888888888U, 0x8888888888888888U, 0x8888888888888888U, 0x8888888888888888U,
  0x8888888888888888U, 0x8888888888888888U, 0x8888888888888888U, 0x8888888888888888U,
  0x8888888888888888U, 0x8888888888888888U, 0x8888888888888888U, 0x8888888888888888U,
  0x8888888888888888U, 0x8888888888888888U, 0x8888888888888888U, 0x8888888888888888U,
  0x8888888888888888U, 0x8888888888888888U, 0x8888888888888888U, 0x8888888888888888U,
  0x8888888888888888U, 0x8888888888888888U, 0x8888888888888888U, 0x8888888888888888U,
  0x8888888888888888U, 0x8888888888888888U, 0x8888888888888888U, 0x8888888888888888U,
  0x8888888888888888U, 0x8888888888888888U, 0x8888888888888888U, 0x8888888888888888U,
  0x8888888888888888U, 0x8888888888888888U, 0x8888888888888888U, 0x8888888888888888U,
  0x8888888888888888U, 0x8888888888888888U, 0x8888888888888888U, 0x8888888888888888U,
  0x8888888888888888U, 0x8888888888888888U, 0x8888888888888888U, 0x8888888888888888U,
  0x8888888888888888U, 0x8888888888888888U, 0x8888888888888888U, 0x8888888888888888U,
  0x8888888888888888U, 0x8888888888888888U, 0x8888888888888888U, 0x8888888888888888U,
  0x8888888888888888U, 0x8888888888888888U, 0x8888888888888888U, 0x8888888888888888U,
  0x8888888888888888U, 0x8888888888888888U, 0x8888888888888888U, 0x8888888888888888U,
  0x8888888888888888U, 0x8888888888888888U, 0x8888888888888888U, 0x8888888888888888U,
  0x8888888888888888U, 0x8888888888888888U, 0x8888888888888888U, 0x8888888888888888U,
  0x8888888888888888U, 0x8888888888888888U, 0x8888888888888888U, 0x8888888888888888U,
  0x8888888888888888U, 0x8888888888888888U, 0x8888888888888888U, 0x8888888888888888U,
  0x8888888888888888U, 0x8888888888888888U, 0x8888888888888888U, 0x8888888888888888U,
  0x8888888888888888U, 0x8888888888888888U, 0x8888888888888888U, 0x8888888888888888U,
  0x8888888888888888U, 0x8888888888888888U, 0x8888888888888888U, 0x8888888888888888U,
  0x8888888888888888U, 0x8888888888888888U, 0x8888888888888888U, 0x8888888888888888U,
  0x8888888888888888U, 0x8888888888888888U, 0x8888888888888888U, 0x8888888888888888U,
  0x8888888888888888U, 0x8888888888888888U, 0x8888888888888888U, 0x8888888888888888U,
  0x8888888888888888U, 0x8888888888888888U, 0x8888888888888888U, 0x8888888888888888U,
  0x8888888888888888U, 0x8888888888888888U, 0x8888888888888888U, 0x8888888888888888U,
  0x8888888888888888U, 0x8888888888888888U, 0x8888888888888888U, 0x8888888888888888U,
  0x8888888888888888U, 0x8888888888888888U, 0x8888888888888888U, 0x8888888888888888U,
  0x8888888888888888U, 0x8888888888888888U, 0x8888888888888888U, 0x8888888888888888U,
  0x8888888888888888U, 0x8888888888888888U, 0x8888888888888888U, 0x8888888888888888U,
  0x8888888888888888U, 0x8888888888888888U, 0x8888888888888888U, 0x8888888888888888U,
  0x8888888888888888U, 0x8888888888888888U, 0x8888888888888888U, 0x8888888888888888U,
  0x8888888888888888U, 0x8888888888888888U, 0x8888888888888888U, 0x8888888888888888U,
  0x8888888888888888U, 0x8888888888888888U, 0x8888888888888888U, 0x8888888888888888U,
  0x8888888888888888U, 0x8888888888888888U, 0x8888888888888888U, 0x8888888888888888U,
  0x8888888888888888U, 0x8888888888888888U, 0x8888888888888888U, 0x8888888888888888U,
  0x8888888888888888U, 0x8888888888888888U, 0x8888888888888888U, 0x8888888888888888U,
  0x8888888888888888U, 0x8888888888888888U, 0x8888888888888888U, 0x8888888888888888U,
  0x8888888888888888U, 0x8888888888888888U, 0x8888888888888888U, 0x8888888888888888U,
  0x8888888888888888U, 0x8888888888888888U, 0x8888888888888888U, 0x8888888888888888U,
  0x8888888888888888U, 0x8888888888888888U, 0x8888888888888888U, 0x8888888888888888U,
  0x8888888888888888U, 0x8888888888888888U, 0x8888888888888888U, 0x8888888888888888U,
  0x8888888888888888U, 0x8888888888888888U, 0x8888888888888888U, 0x8888888888888888U,
  0x8888888888888888U, 0x8888888888888888U, 0x8888888888888888U, 0x8888888888888888U,
  0x8888888888888888U, 0x8888888888888888U, 0x8888888888888888U, 0x8888888888888888U,
  0x8888888888888888U, 0x8888888888888888U, 0x8888888888888888U, 0x8888888888888888U,
  0x8888888888888888U, 0x8888888888888888U, 0x8888888888888888U, 0x8888888888888888U,
  0x8888888888888888U, 0x8888888888888888U, 0x8888888888888888U, 0x8888888888888888U,
  0x8888888888888888U, 0x8888888888888888U, 0x8888888888888888U, 0x8888888888888888U,
  0x8888888888888888U, 0x8888888888888888U, 0x8888888888888888U, 0x8888888888888888U,
  0x8888888888888888U, 0x8888888888888888U, 0x8888888888888888U, 0x8888888888888888U,
  0x8888888888888888U, 0x8888888888888888U, 0x8888888888888888U, 0x8888888888888888U,
  0x8888888888888888U, 0x8888888888888888U, 0x8888888888888888U, 0x8888888888888888U,
  0x8888888888888888U, 0x8888888888888888U, 0x8888888888888888U, 0x8888888888888888U,
  0x8888888888888888U, 0x8888888888888888U, 0x8888888888888888U, 0x8888888888888888U,
  0x8888888888888888U, 0x8888888888888888U, 0x8888888888888888U, 0x8888888888888888U,
  0x8888888888888888U, 0x8888888888888888U, 0x8888888888888888U, 0x8888888888888888U,
  0x8888888888888888U, 0x8888888888888888U, 0x8888888888888888U, 0x8888888888888888U,
  0x8888888888888888U, 0x8888888888888888U, 0x8888888888888888U, 0x8888888888888888U,
  0x8888888888888888U, 0x8888888888888888U, 0x8888888888888888U, 0x8888888888888888U,
  0x8888888888888888U, 0x8888888888888888U, 0x8888888888888888U, 0x8888888888888888U,
  0x8888888888888888U, 0x8888888888888888U, 0x8888888888888888U, 0x8888888888888888U,
  0x8888888888888888U, 0x8888888888888888U, 0x8888888888888888U, 0x8888888888888888U,
  0x8888888888888888U, 0x8888888888888888U, 0x8888888888888888U, 0x8888888888888888U,
  0x8888888888888888U, 0x8888888888888888U, 0x8888888888888888U, 0x8888888888888888U,
  0x8888888888888888U, 0x8888888888888888U, 0x8888888888888888U, 0x8888888888888888U,
  0x8888888888888888U, 0x8888888888888888U, 0x8888888888888888U, 0x8888888888888888U,
  0x8888888888888888U, 0x8888888888888888U, 0x8888888888888888U, 0x8888888888888888U,
  0x8888888888888888U, 0x8888888888888888U, 0x8888888888888888U, 0x8888888888888888U,
  0x8888888888888888U, 0x8888888888888888U, 0x8888888888888888U, 0x8888888888888888U,
  0x8888888888888888U, 0x8888888888888888U, 0x8888888888888888U, 0x8888888888888888U,
  0x8888888888888888U, 0x8888888888888888U, 0x8888888888888888U, 0x8888888888888888U,
  0x8888888888888888U, 0x8888888888888888U, 0x8888888888888888U, 0x8888888888888888U,
  0x8888888888888888U, 0x8888888888888888U, 0x8888888888888888U, 0x8888888888888888U,
  0x8888888888888888U, 0x8888888888888888U, 0x8888888888888888U, 0x8888888888888888U,
  0x8888888888888888U, 0x8888888888888888U, 0x8888888888888888U, 0x8888888888888888U,
  0x8888888888888888U, 0x8888888888888888U, 0x8888888888888888U, 0x8888888888888888U,
  0x8888888888888888U, 0x8888888888888888U, 0x8888888888888888U, 0x8888888888888888U,
  0x8888888888888888U, 0x8888888888888888U, 0x8888888888888888U, 0x8888888888888888U,
  0x8888888888888888U, 0x8888888888888888U, 0x8888888888888888U, 0x8888888888888888U,
  0x8888888888888888U, 0x8888888888888888U, 0x8888888888888888U, 0x8888888888888888U,
  0x8888888888888888U, 0x8888888888888888U, 0x8888888888888888U, 0x8888888888888888U,
  0x8888888888888888U, 0x8888888888888888U, 0x8888888888888888U, 0x8888888888888888U,
  0x8888888888888888U, 0x8888888888888888U, 0x8888888888888888U, 0x8888888888888888U,
  0x8888888888888888U, 0x8888888888888888U, 0x8888888888888888U, 0x8888888888888888U,
  0x8888888888888888U, 0x8888888888888888U, 0x8888888888888888U, 0x8888888888888888U,
  0x8888888888888888U, 0x8888888888888888U, 0x8888888888888888U, 0x8888888888888888U,
  0x8888888888888888U, 0x8888888888888888U, 0x8888888888888888U, 0x8888888888888888U,
  0x8888888888888888U, 0x8888888888888888U, 0x8888888888888888U, 0x8888888888888888U,
  0x8888888888888888U, 0x8888888888888888U, 0x8888888888888888U, 0x8888888888888888U,
  0x8888888888888888U, 0x8888888888888888U, 0x8888888888888888U, 0x8888888888888888U,
  0x8888888888888888U, 0x8888888888888888U, 0x8888888888888888U, 0x8888888888888888U,
  0x8888888888888888U, 0x8888888888888888U, 0x8888888888888888U, 0x8888888888888888U,
  0x8888888888888888U, 0x8888888888888888U, 0x8888888888888888U, 0x8888888888888888U,
  0x8888888888888888U, 0x8888888888888888U, 0x8888888888888888U, 0x8888888888888888U,
  0x8888888888888888U, 0x8888888888888888U, 0x8888888888888888U, 0x8888888888888888U,
  0x8888888888888888U, 0x8888888888888888U, 0x8888888888888888U, 0x8888888888888888U,
  0x8888888888888888U, 0x8888888888888888U, 0x8888888888888888U, 0x8888888888888888U,
  0x8888888888888888U, 0x8888888888888888U, 0x8888888888888888U, 0x8888888888888888U,
  0x8888888888888888U, 0x8888888888888888U, 0x8888888888888888U, 0x8888888888888888U,
  0x8888888888888888U, 0x8888888888888888U, 0x8888888888888888U, 0x8888888888888888U,
  0x8888888888888888U, 0x8888888888888888U, 0x8888888888888888U, 0x8888888888888888U,
  0x8888888888888888U, 0x8888888888888888U, 0x8888888888888888U, 0x8888888888888888U,
  0x8888888888888888U, 0x8888888888888888U, 0x8888888888888888U, 0x8888888888888888U,
  0x8888888888888888U, 0x8888888888888888U, 0x8888888888888888U, 0x8888888888888888U,
  0x8888888888888888U, 0x8888888888888888U, 0x8888888888888888U, 0x8888888888888888U,
  0x8888888888888888U, 0x8888888888888888U, 0x8888888888888888U, 0x8888888888888888U,
  0x8888888888888888U, 0x8888888888888888U, 0x8888888888888888U, 0x8888888888888888U,
  0x8888888888888888U, 0x8888888888888888U, 0x8888888888888888U, 0x8888888888888888U,
  0x8888888888888888U, 0x8888888888888888U, 0x8888888888888888U, 0x8888888888888888U,
  0x8888888888888888U, 0x8888888888888888U, 0x8888888888888888U, 0x8888888888888888U,
  0x8888888888888888U, 0x8888888888888888U, 0x8888888888888888U, 0x8888888888888888U,
  0x8888888888888888U, 0x8888888888888888U, 0x8888888888888888U, 0x8888888888888888U,
  0x8888888888888888U, 0x8888888888888888U, 0x8888888888888888U, 0x8888888888888888U,
  0x8888888888888888U, 0x8888888888888888U, 0x8888888888888888U, 0x8888888888888888U,
  0x8888888888888888U, 0x8888888888888888U, 0x8888888888888888U, 0x8888888888888888U,
  0x8888888888888888U, 0x8888888888888888U, 0x8888888888888888U, 0x8888888888888888U,
  0x8888888888888888U, 0x8888888888888888U, 0x8888888888888888U, 0x8888888888888888U,
  0x8888888888888888U, 0x8888888888888888U, 0x8888888888888888U, 0x8888888888888888U,
  0x8888888888888888U, 0x8888888888888888U, 0x8888888888888888U, 0x8888888888888888U,
  0x8888888888888888U, 0x8888888888888888U, 0x8888888888888888U, 0x8888888888888888U,
  0x8888888888888888U, 0x8888888888888888U, 0x8888888888888888U, 0x8888888888888888U,
  0x8888888888888888U, 0x8888888888888888U, 0x8888888888888888U, 0x8888888888888888U,
  0x8888888888888888U, 0x8888888888888888U, 0x8888888888888888U, 0x8888888888888888U,
  0x8888888888888888U, 0x8888888888888888U, 0x8888888888888888U, 0x8888888888888888U,
  0x8888888888888888U, 0x8888888888888888U, 0x8888888888888888U, 0x8888888888888888U,
  0x8888888888888888U, 0x8888888888888888U, 0x8888888888888888U, 0x8888888888888888U,
  0x8888888888888888U, 0x8888888888888888U, 0x8888888888888888U, 0x8888888888888888U,
  0x8888888888888888U, 0x8888888888888888U, 0x8888888888888888U, 0x8888888888888888U,
  0x8888888888888888U, 0x8888888888888888U, 0x8888888888888888U, 0x8888888888888888U,
  0x8888888888888888U, 0x8888888888888888U, 0x8888888888888888U, 0x8888888888888888U,
  0x8888888888888888U, 0x8888888888888888U, 0x8888888888888888U, 0x8888888888888888U,
  0x8888888888888888U, 0x8888888888888888U, 0x8888888888888888U, 0x8888888888888888U,
  0x8888888888888888U, 0x8888888888888888U, 0x8888888888888888U, 0x8888888888888888U,
  0x8888888888888888U, 0x8888888888888888U, 0x8888888888888888U, 0x8888888888888888U,
  0x8888888888888888U, 0x8888888888888888U, 0x8888888888888888U, 0x8888888888888888U,
  0x8888888888888888U, 0x8888888888888888U, 0x8888888888888888U, 0x8888888888888888U,
  0x8888888888888888U, 0x8888888888888888U, 0x8888888888888888U, 0x8888888888888888U,
  0x8888888888888888U, 0x8888888888888888U, 0x8888888888888888U, 0x8888888888888888U,
  0x8888888888888888U, 0x8888888888888888U, 0x8888888888888888U, 0x8888888888888888U,
  0x8888888888888888U, 0x8888888888888888U, 0x8888888888888888U, 0x8888888888888888U,
  0x8888888888888888U, 0x8888888888888888U, 0x8888888888888888U, 0x8888888888888888U,
  0x8888888888888888U, 0x8888888888888888U, 0x8888888888888888U, 0x8888888888888888U,
  0x8888888888888888U, 0x8888888888888888U, 0x8888888888888888U, 0x8888888888888888U,
  0x8888888888888888U, 0x8888888888888888U, 0x8888888888888888U, 0x8888888888888888U,
  0x8888888888888888U, 0x8888888888888888U, 0x8888888888888888U, 0x8888888888888888U,
  0x8888888888888888U, 0x8888888888888888U, 0x8888888888888888U, 0x8888888888888888U,
  0x8888888888888888U, 0x8888888888888888U, 0x8888888888888888U, 0x8888888888888888U,
  0x8888888888888888U, 0x8888888888888888U, 0x8888888888888888U, 0x8888888888888888U,
  0x8888888888888888U, 0x8888888888888888U, 0x8888888888888888U, 0x8888888888888888U,
  0x8888888888888888U, 0x8888888888888888U, 0x8888888888888888U, 0x8888888888888888U,
  0x8888888888888888U, 0x8888888888888888U, 0x8888888888888888U, 0x8888888888888888U,
  0x8888888888888888U, 0x8888888888888888U, 0x8888888888888888U, 0x8888888888888888U,
  0x8888888888888888U, 0x8888888888888888U, 0x8888888888888888U, 0x8888888888888888U,
  0x8888888888888888U, 0x8888888888888888U, 0x8888888888888888U, 0x8888888888888888U,
  0x8888888888888888U, 0x8888888888888888U, 0x8888888888888888U, 0x8888888888888888U,
  0x8888888888888888U, 0x8888888888888888U, 0x8888888888888888U, 0x8888888888888888U,
  0x8888888888888888U, 0x8888888888888888U, 0x8888888888888888U, 0x8888888888888888U,
  0x8888888888888888U, 0x8888888888888888U, 0x8888888888888888U, 0x8888888888888888U,
  0x8888888888888888U, 0x8888888888888888U, 0x8888888888888888U, 0x8888888888888888U,
  0x8888888888888888U, 0x8888888888888888U, 0x8888888888888888U, 0x8888888888888888U,
  0x8888888888888888U, 0x8888888888888888U, 0x8888888888888888U, 0x8888888888888888U,
  0x8888888888888888U, 0x8888888888888888U, 0x8888888888888888U, 0x8888888888888888U,
  0x8888888888888888U, 0x8888888888888888U, 0x8888888888888888U, 0x8888888888888888U,
  0x8888888888888888U, 0x8888888888888888U, 0x8888888888888888U, 0x8888888888888888U,
  0x8888888888888888U, 0x8888888888888888U, 0x8888888888888888U, 0x8888888888888888U,
  0x8888888888888888U, 0x8888888888888888U, 0x8888888888888888U, 0x8888888888888888U,
  0x8888888888888888U, 0x8888888888888888U, 0x8888888888888888U, 0x8888888888888888U,
  0x8888888888888888U, 0x8888888888888888U, 0x8888888888888888U, 0x8888888888888888U,
  0x8888888888888888U, 0x8888888888888888U, 0x8888888888888888U, 0x8888888888888888U,
  0x8888888888888888U, 0x8888888888888888U, 0x8888888888888888U, 0x8888888888888888U,
  0x8888888888888888U, 0x8888888888888888U, 0x8888888888888888U, 0x8888888888888888U,
  0x8888888888888888U, 0x8888888888888888U, 0x8888888888888888U, 0x8888888888888888U,
  0x8888888888888888U, 0x8888888888888888U, 0x8888888888888888U, 0x8888888888888888U,
  0x8888888888888888U, 0x8888888888888888U, 0x8888888888888888U, 0x8888888888888888U,
  0x8888888888888888U, 0x8888888888888888U, 0x8888888888888888U, 0x8888888888888888U,
  0x8888888888888888U, 0x8888888888888888U, 0x8888888888888888U, 0x8888888888888888U,
  0x8888888888888888U, 0x8888888888888888U, 0x8888888888888888U, 0x8888888888888888U,
  0x8888888888888888U, 0x8888888888888888U, 0x8888888888888888U, 0x8888888888888888U,
  0x8888888888888888U, 0x8888888888888888U, 0x8888888888888888U, 0x8888888888888888U,
  0x8888888888888888U, 0x8888888888888888U, 0x8888888888888888U, 0x8888888888888888U,
  0x8888888888888888U, 0x8888888888888888U, 0x8888888888888888U, 0x8888888888888888U,
  0x8888888888888888U, 0x8888888888888888U, 0x8888888888888888U, 0x8888888888888888U,
  0x8888888888888888U, 0x8888888888888888U, 0x8888888888888888U, 0x8888888888888888U,
  0x8888888888888888U, 0x8888888888888888U, 0x8888888888888888U, 0x8888888888888888U,
  0x8888888888888888U, 0x8888888888888888U, 0x8888888888888888U, 0x8888888888888888U,
  0x8888888888888888U, 0x8888888888888888U, 0x8888888888888888U, 0x8888888888888888U,
  0x8888888888888888U, 0x8888888888888888U, 0x8888888888888888U, 0x8888888888888888U,
  0x8888888888888888U, 0x8888888888888888U, 0x8888888888888888U, 0x8888888888888888U,
  0x8888888888888888U, 0x8888888888888888U, 0x8888888888888888U, 0x8888888888888888U,
  0x8888888888888888U, 0x8888888888888888U, 0x8888888888888888U, 0x8888888888888888U,
  0x8888888888888888U, 0x8888888888888888U, 0x8888888888888888U, 0x8888888888888888U,
  0x8888888888888888U, 0x8888888888888888U, 0x8888888888888888U, 0x8888888888888888U,
  0x8888888888888888U, 0x8888888888888888U, 0x8888888888888888U, 0x8888888888888888U,
  0x8888888888888888U, 0x8888888888888888U, 0x8888888888888888U, 0x8888888888888888U,
  0x8888888888888888U, 0x8888888888888888U, 0x8888888888888888U, 0x8888888888888888U,
  0x8888888888888888U, 0x8888888888888888U, 0x8888888888888888U, 0x8888888888888888U,
  0x8888888888888888U, 0x8888888888888888U, 0x8888888888888888U, 0x8888888888888888U,
  0x8888888888888888U, 0x8888888888888888U, 0x8888888888888888U, 0x8888888888888888U,
  0x8888888888888888U, 0x8888888888888888U, 0x8888888888888888U, 0x8888888888888888U,
  0x8888888888888888U, 0x8888888888888888U, 0x8888888888888888U, 0x8888888888888888U,
  0x8888888888888888U, 0x8888888888888888U, 0x8888888888888888U, 0x8888888888888888U,
  0x8888888888888888U, 0x8888888888888888U, 0x8888888888888888U, 0x8888888888888888U,
  0x8888888888888888U, 0x8888888888888888U, 0x8888888888888888U, 0x8888888888888888U,
  0x8888888888888888U, 0x8888888888888888U, 0x8888888888888888U, 0x8888888888888888U,
  0x8888888888888888U, 0x8888888888888888U, 0x8888888888888888U, 0x8888888888888888U,
  0x8888888888888888U, 0x8888888888888888U, 0x8888888888888888U, 0x8888888888888888U,
  0x8888888888888888U, 0x8888888888888888U, 0x8888888888888888U, 0x8888888888888888U,
  0x8888888888888888U, 0x8888888888888888U, 0x8888888888888888U, 0x8888888888888888U,
  0x8888888888888888U, 0x8888888888888888U, 0x8888888888888888U, 0x8888888888888888U,
  0x8888888888888888U, 0x8888888888888888U, 0x8888888888888888U, 0x8888888888888888U,
  0x8888888888888888U, 0x8888888888888888U, 0x8888888888888888U, 0x8888888888888888U,
  0x8888888888888888U, 0x8888888888888888U, 0x8888888888888888U, 0x8888888888888888U,
  0x8888888888888888U, 0x8888888888888888U, 0x8888888888888888U, 0x8888888888888888U,
  0x8888888888888888U, 0x8888888888888888U, 0x8888888888888888U, 0x8888888888888888U,
  0x8888888888888888U, 0x8888888888888888U, 0x8888888888888888U, 0x8888888888888888U,
  0x8888888888888888U, 0x8888888888888888U, 0x8888888888888888U, 0x8888888888888888U,
  0x8888888888888888U, 0x8888888888888888U, 0x8888888888888888U, 0x8888888888888888U,
  0x8888888888888888U, 0x8888888888888888U, 0x8888888888888888U, 0x8888888888888888U,
  0x8888888888888888U, 0x8888888888888888U, 0x8888888888888888U, 0x8888888888888888U,
  0x8888888888888888U, 0x8888888888888888U, 0x8888888888888888U, 0x8888888888888888U,
  0x8888888888888888U, 0x8888888888888888U, 0x8888888888888888U, 0x8888888888888888U,
  0x8888888888888888U, 0x8888888888888888U, 0x8888888888888888U, 0x8888888888888888U,
  0x8888888888888888U, 0x8888888888888888U, 0x8888888888888888U, 0x8888888888888888U,
  0x8888888888888888U, 0x8888888888888888U, 0x8888888888888888U, 0x8888888888888888U,
  0x8888888888888888U, 0x8888888888888888U, 0x8888888888888888U, 0x8888888888888888U,
  0x8888888888888888U, 0x8888888888888888U, 0x8888888888888888U, 0x8888888888888888U,
  0x8888888888888888U, 0x8888888888888888U, 0x8888888888888888U, 0x8888888888888888U,
  0x8888888888888888U, 0x8888888888888888U, 0x8888888888888888U, 0x8888888888888888U,
  0x8888888888888888U, 0x8888888888888888U, 0x8888888888888888U, 0x8888888888888888U,
  0x8888888888888888U, 0x8888888888888888U, 0x8888888888888888U, 0x8888888888888888U,
  0x8888888888888888U, 0x8888888888888888U, 0x8888888888888888U, 0x8888888888888888U,
  0x8888888888888888U, 0x8888888888888888U, 0x8888888888888888U, 0x8888888888888888U,
  0x8888888888888888U, 0x8888888888888888U, 0x8888888888888888U, 0x8888888888888888U,
  0x8888888888888888U, 0x8888888888888888U, 0x8888888888888888U, 0x8888888888888888U,
  0x8888888888888888U, 0x8888888888888888U, 0x8888888888888888U, 0x8888888888888888U,
  0x8888888888888888U, 0x8888888888888888U, 0x8888888888888888U, 0x8888888888888888U,
  0x8888888888888888U, 0x8888888888888888U, 0x8888888888888888U, 0x8888888888888888U,
  0x8888888888888888U, 0x8888888888888888U, 0x8888888888888888U, 0x8888888888888888U,
  0x8888888888888888U, 0x8888888888888888U, 0x8888888888888888U, 0x8888888888888888U,
  0x8888888888888888U, 0x8888888888888888U, 0x8888888888888888U, 0x8888888888888888U,
  0x8888888888888888U, 0x8888888888888888U, 0x8888888888888888U, 0x8888888888888888U,
  0x8888888888888888U, 0x8888888888888888U, 0x8888888888888888U, 0x8888888888888888U,
  0x8888888888888888U, 0x8888888888888888U, 0x8888888888888888U, 0x8888888888888888U,
  0x8888888888888888U, 0x8888888888888888U, 0x8888888888888888U, 0x8888888888888888U,
  0x8888888888888888U, 0x8888888888888888U, 0x8888888888888888U, 0x8888888888888888U,
  0x8888888888888888U, 0x8888888888888888U, 0x8888888888888888U, 0x8888888888888888U,
  0x8888888888888888U, 0x8888888888888888U, 0x8888888888888888U, 0x8888888888888888U,
  0x8888888888888888U, 0x8888888888888888U, 0x8888888888888888U, 0x8888888888888888U,
  0x8888888888888888U, 0x8888888888888888U, 0x8888888888888888U, 0x8888888888888888U,
  0x8888888888888888U, 0x8888888888888888U, 0x8888888888888888U, 0x8888888888888888U,
  0x8888888888888888U, 0x8888888888888888U, 0x8888888888888888U, 0x8888888888888888U,
  0x8888888888888888U, 0x8888888888888888U, 0x8888888888888888U, 0x8888888888888888U,
  0x8888888888888888U, 0x8888888888888888U, 0x8888888888888888U, 0x8888888888888888U,
  0x8888888888888888U, 0x8888888888888888U, 0x8888888888888888U, 0x8888888888888888U,
  0x8888888888888888U, 0x8888888888888888U, 0x8888888888888888U, 0x8888888888888888U,
  0x8888888888888888U, 0x8888888888888888U, 0x8888888888888888U, 0x8888888888888888U,
  0x8888888888888888U, 0x8888888888888888U, 0x8888888888888888U, 0x8888888888888888U,
  0x8888888888888888U, 0x8888888888888888U, 0x8888888888888888U, 0x8888888888888888U,
  0x8888888888888888U, 0x8888888888888888U, 0x8888888888888888U, 0x8888888888888888U,
  0x8888888888888888U, 0x8888888888888888U, 0x8888888888888888U, 0x8888888888888888U,
  0x8888888888888888U, 0x8888888888888888U, 0x8888888888888888U, 0x8888888888888888U,
  0x8888888888888888U, 0x8888888888888888U, 0x8888888888888888U, 0x8888888888888888U,
  0x8888888888888888U, 0x8888888888888888U, 0x8888888888888888U, 0x8888888888888888U,
  0x8888888888888888U, 0x8888888888888888U, 0x8888888888888888U, 0x8888888888888888U,
  0x8888888888888888U, 0x8888888888888888U, 0x8888888888888888U, 0x8888888888888888U,
  0x8888888888888888U, 0x8888888888888888U, 0x8888888888888888U, 0x8888888888888888U,
  0x8888888888888888U, 0x8888888888888888U, 0x8888888888888888U, 0x8888888888888888U,
  0x8888888888888888U, 0x8888888888888888U, 0x8888888888888888U, 0x8888888888888888U,
  0x8888888888888888U, 0x8888888888888888U, 0x8888888888888888U, 0x8888888888888888U,
  0x8888888888888888U, 0x8888888888888888U, 0x8888888888888888U, 0x8888888888888888U,
  0x8888888888888888U, 0x8888888888888888U, 0x8888888888888888U, 0x8888888888888888U,
  0x8888888888888888U, 0x8888888888888888U, 0x8888888888888888U, 0x8888888888888888U,
  0x8888888888888888U, 0x8888888888888888U, 0x8888888888888888U, 0x8888888888888888U,
  0x8888888888888888U, 0x8888888888888888U, 0x8888888888888888U, 0x8888888888888888U,
  0x8888888888888888U, 0x8888888888888888U, 0x8888888888888888U, 0x8888888888888888U,
  0x8888888888888888U, 0x8888888888888888U, 0x8888888888888888U, 0x8888888888888888U,
  0x8888888888888888U, 0x8888888888888888U, 0x8888888888888888U, 0x8888888888888888U,
  0x8888888888888888U, 0x8888888888888888U, 0x8888888888888888U, 0x8888888888888888U,
  0x8888888888888888U, 0x8888888888888888U, 0x8888888888888888U, 0x8888888888888888U,
  0x8888888888888888U, 0x8888888888888888U, 0x8888888888888888U, 0x8888888888888888U,
  0x8888888888888888U, 0x8888888888888888U, 0x8888888888888888U, 0x8888888888888888U,
  0x8888888888888888U, 0x8888888888888888U, 0x8888888888888888U, 0x8888888888888888U,
  0x8888888888888888U, 0x8888888888888888U, 0x8888888888888888U, 0x8888888888888888U,
  0x8888888888888888U, 0x8888888888888888U, 0x8888888888888888U, 0x8888888888888888U,
  0x8888888888888888U, 0x8888888888888888U, 0x8888888888888888U, 0x8888888888888888U,
  0x8888888888888888U, 0x8888888888888888U, 0x8888888888888888U, 0x8888888888888888U,
  0x8888888888888888U, 0x8888888888888888U, 0x8888888888888888U, 0x8888888888888888U,
  0x8888888888888888U, 0x8888888888888888U, 0x8888888888888888U, 0x8888888888888888U,
  0x8888888888888888U, 0x8888888888888888U, 0x8888888888888888U, 0x8888888888888888U,
  0x8888888888888888U, 0x8888888888888888U, 0x8888888888888888U, 0x8888888888888888U,
  0x8888888888888888U, 0x8888888888888888U, 0x8888888888888888U, 0x8888888888888888U,
  0x8888888888888888U, 0x8888888888888888U, 0x8888888888888888U, 0x8888888888888888U,
  0x8888888888888888U, 0x8888888888888888U, 0x8888888888888888U, 0x8888888888888888U,
  0x8888888888888888U, 0x8888888888888888U, 0x8888888888888888U, 0x8888888888888888U,
  0x8888888888888888U, 0x8888888888888888U, 0x8888888888888888U, 0x8888888888888888U,
  0x8888888888888888U, 0x8888888888888888U, 0x8888888888888888U, 0x8888888888888888U,
  0x8888888888888888U, 0x8888888888888888U, 0x8888888888888888U, 0x8888888888888888U,
  0x8888888888888888U, 0x8888888888888888U, 0x8888888888888888U, 0x8888888888888888U,
  0x8888888888888888U, 0x8888888888888888U, 0x8888888888888888U, 0x8888888888888888U,
  0x8888888888888888U, 0x8888888888888888U, 0x8888888888888888U, 0x8888888888888888U,
  0x8888888888888888U, 0x8888888888888888U, 0x8888888888888888U, 0x8888888888888888U,
  0x8888888888888888U, 0x8888888888888888U, 0x8888888888888888U, 0x8888888888888888U,
  0x8888888888888888U, 0x8888888888888888U, 0x8888888888888888U, 0x8888888888888888U,
  0x8888888888888888U, 0x8888888888888888U, 0x8888888888888888U, 0x8888888888888888U,
  0x8888888888888888U, 0x8888888888888888U, 0x8888888888888888U, 0x8888888888888888U,
  0x8888888888888888U, 0x8888888888888888U, 0x8888888888888888U, 0x8888888888888888U,
  0x8888888888888888U, 0x8888888888888888U, 0x8888888888888888U, 0x8888888888888888U,
  0x8888888888888888U, 0x8888888888888888U, 0x8888888888888888U, 0x8888888888888888U,
  0x8888888888888888U, 0x8888888888888888U, 0x8888888888888888U, 0x8888888888888888U,
  0x8888888888888888U, 0x8888888888888888U, 0x8888888888888888U, 0x8888888888888888U,
  0x8888888888888888U, 0x8888888888888888U, 0x8888888888888888U, 0x8888888888888888U,
  0x8888888888888888U, 0x8888888888888888U, 0x8888888888888888U, 0x8888888888888888U,
  0x8888888888888888U, 0x8888888888888888U, 0x8888888888888888U, 0x8888888888888888U,
  0x8888888888888888U, 0x8888888888888888U, 0x8888888888888888U, 0x8888888888888888U,
  0x8888888888888888U, 0x8888888888888888U, 0x8888888888888888U, 0x8888888888888888U,
  0x8888888888888888U, 0x8888888888888888U, 0x8888888888888888U, 0x8888888888888888U,
  0x8888888888888888U, 0x8888888888888888U, 0x8888888888888888U, 0x8888888888888888U,
  0x8888888888888888U, 0x8888888888888888U, 0x8888888888888888U, 0x8888888888888888U,
  0x8888888888888888U, 0x8888888888888888U, 0x8888888888888888U, 0x8888888888888888U,
  0x8888888888888888U, 0x8888888888888888U, 0x8888888888888888U, 0x8888888888888888U,
  0x8888888888888888U, 0x8888888888888888U, 0x8888888888888888U, 0x8888888888888888U,
  0x8888888888888888U, 0x8888888888888888U, 0x8888888888888888U, 0x8888888888888888U,
  0x8888888888888888U, 0x8888888888888888U, 0x8888888888888888U, 0x8888888888888888U,
  0x8888888888888888U, 0x8888888888888888U, 0x8888888888888888U, 0x8888888888888888U,
  0x8888888888888888U, 0x8888888888888888U, 0x8888888888888888U, 0x8888888888888888U,
  0x8888888888888888U, 0x8888888888888888U, 0x8888888888888888U, 0x8888888888888888U,
  0x8888888888888888U, 0x8888888888888888U, 0x8888888888888888U, 0x8888888888888888U,
  0x8888888888888888U, 0x8888888888888888U, 0x8888888888888888U, 0x8888888888888888U,
  0x8888888888888888U, 0x8888888888888888U, 0x8888888888888888U, 0x8888888888888888U,
  0x8888888888888888U, 0x8888888888888888U, 0x8888888888888888U, 0x8888888888888888U,
  0x8888888888888888U, 0x8888888888888888U, 0x8888888888888888U, 0x8888888888888888U,
  0x8888888888888888U, 0x8888888888888888U, 0x8888888888888888U, 0x8888888888888888U,
  0x8888888888888888U, 0x8888888888888888U, 0x8888888888888888U, 0x8888888888888888U,
  0x8888888888888888U, 0x8888888888888888U, 0x8888888888888888U, 0x8888888888888888U,
  0x8888888888888888U, 0x8888888888888888U, 0x8888888888888888U, 0x8888888888888888U,
  0x8888888888888888U, 0x8888888888888888U, 0x8888888888888888U, 0x8888888888888888U,
  0x8888888888888888U, 0x8888888888888888U, 0x8888888888888888U, 0x8888888888888888U,
  0x8888888888888888U, 0x8888888888888888U, 0x8888888888888888U, 0x8888888888888888U,
  0x8888888888888888U, 0x8888888888888888U, 0x8888888888888888U, 0x8888888888888888U,
  0x8888888888888888U, 0x8888888888888888U, 0x8888888888888888U, 0x8888888888888888U,
  0x8888888888888888U, 0x8888888888888888U, 0x8888888888888888U, 0x8888888888888888U,
  0x8888888888888888U, 0x8888888888888888U, 0x8888888888888888U, 0x8888888888888888U,
  0x8888888888888888U, 0x8888888888888888U, 0x8888888888888888U, 0x8888888888888888U,
  0x8888888888888888U, 0x8888888888888888U, 0x8888888888888888U, 0x8888888888888888U,
  0x8888888888888888U, 0x8888888888888888U, 0x8888888888888888U, 0x8888888888888888U,
  0x8888888888888888U, 0x8888888888888888U, 0x8888888888888888U, 0x8888888888888888U,
  0x8888888888888888U, 0x8888888888888888U, 0x8888888888888888U, 0x8888888888888888U,
  0x8888888888888888U, 0x8888888888888888U, 0x8888888888888888U, 0x8888888888888888U,
  0x8888888888888888U, 0x8888888888888888U, 0x8888888888888888U, 0x8888888888888888U,
  0x8888888888888888U, 0x8888888888888888U, 0x8888888888888888U, 0x8888888888888888U,
  0x8888888888888888U, 0x8888888888888888U, 0x8888888888888888U, 0x8888888888888888U,
  0x8888888888888888U, 0x8888888888888888U, 0x8888888888888888U, 0x8888888888888888U,
  0x8888888888888888U, 0x8888888888888888U, 0x8888888888888888U, 0x8888888888888888U,
  0x8888888888888888U, 0x8888888888888888U, 0x8888888888888888U, 0x8888888888888888U,
  0x8888888888888888U, 0x8888888888888888U, 0x8888888888888888U, 0x8888888888888888U,
  0x8888888888888888U, 0x8888888888888888U, 0x8888888888888888U, 0x8888888888888888U,
  0x8888888888888888U, 0x8888888888888888U, 0x8888888888888888U, 0x8888888888888888U,
  0x8888888888888888U, 0x8888888888888888U, 0x8888888888888888U, 0x8888888888888888U,
  0x8888888888888888U, 0x8888888888888888U, 0x8888888888888888U, 0x8888888888888888U,
  0x8888888888888888U, 0x8888888888888888U, 0x8888888888888888U, 0x8888888888888888U,
  0x8888888888888888U, 0x8888888888888888U, 0x8888888888888888U, 0x8888888888888888U,
  0x8888888888888888U, 0x8888888888888888U, 0x8888888888888888U, 0x8888888888888888U,
  0x8888888888888888U, 0x8888888888888888U, 0x8888888888888888U, 0x8888888888888888U,
  0x8888888888888888U, 0x8888888888888888U, 0x8888888888888888U, 0x8888888888888888U,
  0x8888888888888888U, 0x8888888888888888U, 0x8888888888888888U, 0x8888888888888888U,
  0x8888888888888888U, 0x8888888888888888U, 0x8888888888888888U, 0x8888888888888888U,
  0x8888888888888888U, 0x8888888888888888U, 0x8888888888888888U, 0x8888888888888888U,
  0x8888888888888888U, 0x8888888888888888U, 0x8888888888888888U, 0x8888888888888888U,
  0x8888888888888888U, 0x8888888888888888U, 0x8888888888888888U, 0x8888888888888888U,
  0x8888888888888888U, 0x8888888888888888U, 0x8888888888888888U, 0x8888888888888888U,
  0x8888888888888888U, 0x8888888888888888U, 0x8888888888888888U, 0x8888888888888888U,
  0x8888888888888888U, 0x8888888888888888U, 0x8888888888888888U, 0x8888888888888888U,
  0x8888888888888888U, 0x8888888888888888U, 0x8888888888888888U, 0x8888888888888888U,
  0x8888888888888888U, 0x8888888888888888U, 0x8888888888888888U, 0x8888888888888888U,
  0x8888888888888888U, 0x8888888888888888U, 0x8888888888888888U, 0x8888888888888888U,
  0x8888888888888888U, 0x8888888888888888U, 0x8888888888888888U, 0x8888888888888888U,
  0x8888888888888888U, 0x8888888888888888U, 0x8888888888888888U, 0x8888888888888888U,
  0x8888888888888888U, 0x8888888888888888U, 0x8888888888888888U, 0x8888888888888888U,
  0x8888888888888888U, 0x8888888888888888U, 0x8888888888888888U, 0x8888888888888888U,
  0x8888888888888888U, 0x8888888888888888U, 0x8888888888888888U, 0x8888888888888888U,
  0x8888888888888888U, 0x8888888888888888U, 0x8888888888888888U, 0x8888888888888888U,
  0x8888888888888888U, 0x8888888888888888U, 0x8888888888888888U, 0x8888888888888888U,
  0x8888888888888888U, 0x8888888888888888U, 0x8888888888888888U, 0x8888888888888888U,
  0x8888888888888888U, 0x8888888888888888U, 0x8888888888888888U, 0x8888888888888888U,
  0x8888888888888888U, 0x8888888888888888U, 0x8888888888888888U, 0x8888888888888888U,
  0x8888888888888888U, 0x8888888888888888U, 0x8888888888888888U, 0x8888888888888888U,
  0x8888888888888888U, 0x8888888888888888U, 0x8888888888888888U, 0x8888888888888888U,
  0x8888888888888888U, 0x8888888888888888U, 0x8888888888888888U, 0x8888888888888888U,
  0x8888888888888888U, 0x8888888888888888U, 0x8888888888888888U, 0x8888888888888888U,
  0x8888888888888888U, 0x8888888888888888U, 0x8888888888888888U, 0x8888888888888888U,
  0x8888888888888888U, 0x8888888888888888U, 0x8888888888888888U, 0x8888888888888888U,
  0x8888888888888888U, 0x8888888888888888U, 0x8888888888888888U, 0x8888888888888888U,
  0x8888888888888888U, 0x8888888888888888U, 0x8888888888888888U, 0x8888888888888888U,
  0x8888888888888888U, 0x8888888888888888U, 0x8888888888888888U, 0x8888888888888888U,
  0x8888888888888888U, 0x8888888888888888U, 0x8888888888888888U, 0x8888888888888888U,
  0x8888888888888888U, 0x8888888888888888U, 0x8888888888888888U, 0x8888888888888888U,
  0x8888888888888888U, 0x8888888888888888U, 0x8888888888888888U, 0x8888888888888888U,
  0x8888888888888888U, 0x8888888888888888U, 0x8888888888888888U, 0x8888888888888888U,
  0x8888888888888888U, 0x8888888888888888U, 0x8888888888888888U, 0x8888888888888888U,
  0x8888888888888888U, 0x8888888888888888U, 0x8888888888888888U, 0x8888888888888888U,
  0x8888888888888888U, 0x8888888888888888U, 0x8888888888888888U, 0x8888888888888888U,
  0x969a9aa8baab787aU, 0xaa57496787795796U, 0x7677978744754568U, 0x9a8a567797786788U,
  0xa8988b856497a878U, 0x779989b938979889U, 0xbc98a95789867897U, 0x6aa7587788967734U,
  0x8599a7a9977aa886U, 0xa9897897a68a867aU, 0xaa69968c78378587U, 0xbb8bca8c7a68a69cU,
  0x8888888888888888U, 0x8888888888888888U, 0x8888888888888888U, 0x8888888888888888U,
  0x4487975878a9bc8aU, 0x79b889686779a644U, 0xa889a7999aa8969aU, 0x8b8967ba99983795U,
  0x5954aba98a85b8aaU, 0x7696a94454a4963aU, 0x5578678783676655U, 0x9d6898789aa86889U,
  0x97788898864887a6U, 0xa9a98889888a6795U, 0x7a9899899887aaacU, 0x896877986a697887U,
  0x7b568b966a97abaaU, 0x96a869425998a889U, 0x79a77745b6aa7c54U, 0x79899696a79b6895U,
  0xa66b79a7879977c6U, 0xa7a868a6a96865a8U, 0x86766676968a74a8U, 0x9999767888978998U,
  0x8976a87689669898U, 0x8ab9aaab7b78a8a9U, 0x54857956a9978799U, 0x6854448796979a98U,
  0x6679a6769c977687U, 0x5387375544885655U, 0x9656357496779a77U, 0xab89969a77455364U,
  0xbb697977ad88aa9aU, 0x6a7899759a799b67U, 0x6699667979779698U, 0x7b34968869455484U,
  0x77586678869ba969U, 0x87667698878989bbU, 0x99887589777687aaU, 0x786a87b786977a96U,
  0x6789a97a8a867658U, 0x88889a9788b67a86U, 0x9699aa7979a89b97U, 0xb99aac8c6475ba79U,
  0x9a589abb567655a9U, 0x9778b99acc8ba887U, 0x9889789468775986U, 0x8988b689889774a7U,
  0x857879a86796a999U, 0xba7a5888a7887898U, 0x9acb6b87898a5975U, 0x98b9bc99bbcaadb9U,
  0x8788888788888888U, 0x8888888988888888U, 0x9888878898898888U, 0x8878778788887788U,
  0x5697786456869899U, 0x96b5876763b88a8bU, 0x6699897855789a57U, 0x9a8998aa9985798aU,
  0x8888788898888888U, 0x8888888888888888U, 0x8888888888888888U, 0x8888888888888888U,
  0xba99ab659789a9aaU, 0xaa66b855ac988935U, 0x8559a9566578a769U, 0x578787788499aa58U,
  0x88bb8a7799589958U, 0x7a6785797a785795U, 0x896686956b768547U, 0x66879956b7977857U,
  0x9bbb8899acbc8999U, 0xa7aa666665a96899U, 0x98aa679a998b6989U, 0x76878899a8aa9789U,
  0xda88b8bcab6a96bcU, 0x68758a78a7ab7889U, 0x66877887b9586988U, 0x69649899688698b7U,
  0x8888888888888888U, 0x8888888888888888U, 0x8888888888888888U, 0x8888888888888888U,
  0x96676799893765a7U, 0x8c78a5b99878799aU, 0x9a7aa6aa9c7bc6aeU, 0x8a89a99a9769c99aU,
  0x8888888888888888U, 0x7888888888888888U, 0x8988888888888888U, 0x8888888888988888U,
  0x677786787a579778U, 0x84a96496335645a8U, 0x86487855525a7477U, 0xa59987aa66667899U,
  0x8888888888888888U, 0x8888888888888888U, 0x8888888888888888U, 0x8888888888888888U,
  0xa89a7458aaaaa998U, 0x876879777a668678U, 0x9a99799778776795U, 0x5897667748875a85U,
  0x9b697aa988795898U, 0x67a9679758887b98U, 0x9988868696899897U, 0x897b878879797867U,
  0x6a78898a8aa88a99U, 0x99878599898898a9U, 0x87ba777869986798U, 0x79aa897788aa99baU,
  0xb9a959a866776758U, 0x76a788a999898aa8U, 0xaa9c6797678556a9U, 0x67896797b88b66b8U,
  0x79b98a9a59a85979U, 0x6a7b99766a9ba979U, 0x889a78b9898b8ab8U, 0xcca7995799a5a686U,
  0x681443aa967a89aaU, 0xa76ab9486545588aU, 0xa899b857a9cac947U, 0x7aa7ab56a9a9ca68U,
  0x798888a8678788b6U, 0x85987897b9ba7857U, 0x99689489b8aaa879U, 0xa7a7b88965b59899U,
  0x96aa468878557875U, 0xaabb597588a96aa6U, 0x68a99a6978da9978U, 0x8a895a86a7d86876U,
  0x8888888888888888U, 0x8888888888888888U, 0x8888888888888888U, 0x8888788888888888U,
  0x9a96898898998987U, 0x69458867596476a7U, 0x6544465659437744U, 0x76aa99c8966b6988U,
  0x887879b795888885U, 0x7679aa8879969988U, 0x598579797557a886U, 0xa966965869768778U,
  0x5ab99ba96976aa79U, 0x88778b8798bb9989U, 0x7a68698957797967U, 0xba7a77a87c996aa9U,
  0xa99978447b567594U, 0xa7898777a77a6954U, 0x6598664896987755U, 0x9979a88744658666U,
  0x857878a77887acabU, 0xb67779a6a8788598U, 0xbab88a98758799b6U, 0x9aab9a76b99a4899U,
  0x9988888888888888U, 0x8888888898988989U, 0x8899888898999999U, 0x8998988898989998U,
  0x98bb9ab997899a98U, 0x895786d9896867a7U, 0x68a87997a89aa5b8U, 0x87aa9b9677aa8ba7U,
  0x7386665848b96945U, 0x7998787795978788U, 0x968c8a5888ab8676U, 0x876a96698798699aU,
  0x788987aa55b889b9U, 0x976899a58a798598U, 0x769998bb77a79998U, 0x8a5644857b877899U,
  0x67888aa6b87a8957U, 0x9a7a858798a89998U, 0x757a7678864b8768U, 0x6945968759797484U,
  0x775654ba88899769U, 0x59946aa7887655d5U, 0x97a789a5b9bb89a4U, 0x9a676997ab9787a6U,
  0x9958755877776665U, 0x679879768788799bU, 0xa88999a876779788U, 0x8a7a88a99a9a89a9U,
  0x9a8aa868b7bbbc98U, 0x6676597869797598U, 0x7a66899c683547acU, 0xa89877d7ab8878a9U,
  0x9698a957979a9967U, 0x98bb8999abbb9a99U, 0x9acc795589ad77b7U, 0x8c97768777977679U,
  0xb9a97a68baab8a99U, 0x68a57a78caab8b87U, 0x674466888b665689U, 0xa969879768677674U,
  0xab8c5796b99a6677U, 0x494466997856a7aaU, 0x975586b956539889U, 0x7998ba9b5a777789U,
  0x8888888888888888U, 0x8888888888888888U, 0x8888888888888888U, 0x8888888888888888U,
  0x9898899887777687U, 0x7a77a6b88b7398caU, 0x59b9aa88698689a8U, 0x98cafd7b788aba5aU,
  0x55556988897a67b8U, 0x8989688777995589U, 0x969a779a88566ab5U, 0x473187995497979bU,
  0x76677476aa888866U, 0x9767896756663763U, 0x899786889b78a869U, 0x79a98a7a89978999U,
  0x775845a5886748a4U, 0x7688b8a9a36766a8U, 0x4561aa596778a949U, 0x979a79567676ab87U,
  0x989968a86897988bU, 0x97baa98c87aa998aU, 0x857aa67a98aa9989U, 0x5746568775c8a889U,
  0xa9897998a79cca9aU, 0xa88a978857678797U, 0xba98987879899954U, 0xaa88a976a6799968U,
  0x98699aab86479968U, 0x7999b6a4887a99a6U, 0x6a6756657a778887U, 0xb845969889579446U,
  0x88998b9a738788a6U, 0x8888a99597978698U, 0xa986757698b9b775U, 0x686aa8b98a6a8888U,
  0x87964955bb889958U, 0x8887aa7897aa7988U, 0x87a8886775aa9a56U, 0x899a8999787a8799U,
  0x5588677698ba8a97U, 0x978b579968878988U, 0x7b58657649782676U, 0x989779587999987aU,
  0x686642777ac84854U, 0x577675b677657586U, 0x4988aa76577779a8U, 0x7777ab8878659653U,
  0x99776778c8aabaabU, 0xbc6b95aaba996798U, 0xa8477496ba8798b7U, 0xea8b8a9876765665U,
  0x979bc99755556896U, 0x8abb79baa8989a78U, 0x7a9689aa796798c7U, 0x797876765a776489U,
  0x798779665b699987U, 0x8a6548aa89946968U, 0x995882a856876797U, 0x9a67a89a9a9778b8U,
  0x59988797979a9a96U, 0x9757989a5869a986U, 0x96677865a8747597U, 0x88889b67976868a9U,
  0x7588564636888779U, 0x79996a44a7aa6965U, 0x988695b79a968ba2U, 0x5988a98798586765U,
  0x9887999696586687U, 0x597895a8656894a5U, 0xad67a9ab8b999999U, 0x98aaa88aad97b99bU,
  0x8888888888888888U, 0x8888888888888888U, 0x8888888888888888U, 0x8888888888888888U,
  0x96b8aa874666b967U, 0x5985b7a967989a9cU, 0x778998a8676589b8U, 0x9988998b8997a8bbU,
  0x9a54686998887778U, 0xa7aa475955757359U, 0x75ba997898b85879U, 0x9999786777b98967U,
  0xc9996873a69988b7U, 0x76a87a9496967a97U, 0x6887988889b89997U, 0x9899aa7889888769U,
  0x6599879976867549U, 0x7886aa697698b686U, 0x788896599c85aa7bU, 0x779aaa553744aa44U,
  0x7a9a7a7659979989U, 0x89a98b9b39969878U, 0x77678769aaa99978U, 0x5587665697789737U,
  0x7998898889889988U, 0x8889888888988888U, 0x8988898888888888U, 0x8988888789888888U,
  0x867a7a898367997aU, 0xa976239797563489U, 0x9a6576a98a762566U, 0xa8ba9daa68766966U,
  0x4757978779867787U, 0x87aa7aa799a77999U, 0x767566aa56a85898U, 0x78776ba98a899769U,
  0x95899776a88aa979U, 0xb8baab7995ad9a58U, 0x8ca976a9a9ac999aU, 0x9868786976996a77U,
  0x8888888888888888U, 0x8888888888888888U, 0x8888888888888888U, 0x8888888888888888U,
  0x6985279568777597U, 0x8a8687a5786887a5U, 0x6b7675858b688886U, 0x9757576a8a442664U,
  0x8888888888888888U, 0x8888888888778888U, 0x8888888888888888U, 0x7897888778888878U,
  0xcb88a8ab8a99b7cbU, 0x78576877a878a7a8U, 0x5466668799988978U, 0x7456667588876878U,
  0xa978769589746696U, 0x6888649978569677U, 0x878658367a984787U, 0x78bc8a8668899766U,
  0x8888888887888888U, 0x8788888888888888U, 0x8888888888888888U, 0x8888878888888788U,
  0x9899887858676367U, 0x9a44959c59666599U, 0x8a9988988a9899abU, 0x968a9968886a959bU,
  0x858899a8785985caU, 0x89886aa5669897c8U, 0x67965676a7a98a99U, 0x89655595a9a9a877U,
  0xaa778875aa9a8855U, 0x997888a869668698U, 0xb7aaba78b88978a6U, 0x66668889a666a99aU,
  0x6c78559b7b5596baU, 0x8999978c78a9999bU, 0x98a7777979b8a96bU, 0x9999b8b8966795b9U,
  0x668679968886a6a7U, 0x78998aa778977ba7U, 0x6a67768936677999U, 0x99995886ba898897U,
  0x9748869998a99989U, 0x676a7769675546a4U, 0x77a899b876888988U, 0x655884889aa989a7U,
  0x9aa678cc85a49736U, 0x8c97a76b7d995678U, 0xa787a6bb6b87785aU, 0xad6b7689bc9a63a9U,
  0x5876986a67758568U, 0x5bba99aa7a87ab8aU, 0x7688987797999698U, 0x8cab989a57996789U,
  0x85b9a96964978946U, 0xa97a98aa9989aa78U, 0x8aa86ba8bbbb9a98U, 0x98a8aa9b56a568a6U,
  0x68758988aa989b87U, 0x8889597565867897U, 0x3786788676786585U, 0x878a889978a657a7U,
  0x9b99bc7bdaab7aa9U, 0xac889aa7a9877a7aU, 0x999ac999a885a999U, 0x987998a8aa88d88aU,
  0xa973a5a7a9776656U, 0x78a999769add9a96U, 0x957676a795986a9aU, 0x77999a9a7987a899U,
  0x987738467768697aU, 0x85aa678774b79988U, 0x9b85e9ac65789789U, 0x8478876b8b857a88U,
  0x8888888888778888U, 0x7888888888778888U, 0x8888888877888888U, 0x8a88888879887888U,
  0x678789a765978887U, 0x4946868968766786U, 0x897687964668a6a8U, 0x67799a6688786696U,
  0xa7ebca5589c8ac49U, 0xb8cdbb8b75dbda68U, 0xa9baaabaacaaba89U, 0xcca9cbbcaaaa8abcU,
  0x8888888888888888U, 0x8888888888888888U, 0x8888888888888888U, 0x8888888998888888U,
  0x8558969a8889a898U, 0x686765998644568aU, 0x5666769867768567U, 0x5678686877669778U,
  0x59797897aaa978a7U, 0x796797766a889688U, 0xa7ab6977a4586968U, 0x7799988997ba9c87U,
  0x7977ab6755657766U, 0x6967a97a57868958U, 0xb699959957588588U, 0x998d8a8967856776U,
  0x8767987a7998a9c8U, 0x68875aba87575789U, 0x98b8b78b68a869acU, 0x99b7ab8997b9baa8U,
  0x98a9a99887989847U, 0x88b57864b9a8987aU, 0x7626535587668554U, 0x58587579778897a8U,
  0x887886669a987896U, 0xa987588777768867U, 0x8996966799986776U, 0x99a9ab889abb8a89U,
  0x88bcb886b7d8bcc8U, 0x659a967855667369U, 0x7995966656659868U, 0x879899797999a989U,
  0x8a4797457a987b97U, 0x9976769779473465U, 0x976987b9756688a6U, 0x6a96777877778987U,
  0x86b89976986899a8U, 0xa69a769c978a9797U, 0xdb996a46b88a5789U, 0x46dabbaa95b9ba69U,
  0x6965669884669778U, 0x76666568989886b9U, 0x6a78858846788779U, 0x7577749789cc9856U,
  0x8888888888888888U, 0x8888888888888888U, 0x8888888888888888U, 0x8888888888888888U,
  0x7987887786bbab88U, 0xa966999879b7aa84U, 0x79858a479aaa8766U, 0x86b8aa9669778956U,
  0x5785768787888998U, 0x9a8857a658657585U, 0x978858a6a8bb6999U, 0x969989ba98aa7bb9U,
  0x9b87a868a7a69a75U, 0x9a87a79876896686U, 0xb99689a7aaa89aa5U, 0x7777a98896b69a88U,
  0x6997a8a887a88c9aU, 0x6799677579868877U, 0x8a679699a798a776U, 0x67557798bb5986b9U,
  0x9889878998887877U, 0x7786a95897a89845U, 0x77a87a8986a9ad8aU, 0x9798897875879a67U,
  0x7766888724455554U, 0x8768469858776676U, 0x698a89997a897987U, 0x6a85656588d84b56U,
  0x6979978875a97b87U, 0x8758b679b778a975U, 0x97a9454478984496U, 0xa2957475a5b85867U,
  0x8867788465678899U, 0x65967a6786787987U, 0x8c37a5899d686675U, 0x5958765578645756U,
  0x8888888888888888U, 0x8888888888888888U, 0x8888888888888888U, 0x8888888888888888U,
  0xba989aa59b699ba6U, 0xa88ba9a8b7786898U, 0x76a88899766666a7U, 0x9c959aa96995aa99U,
  0x469a635589999376U, 0x4998687a297a5666U, 0xcbbc778655764734U, 0xa9588578ab4a8799U,
  0x66889979ab5579a9U, 0x8747a55b8797a949U, 0x8644864896a5877bU, 0x6775876765848879U,
  0xa6468956a9456546U, 0x75b7a98ba65a798bU, 0x458879bc66947a9bU, 0xa8be269794795769U,
  0xaba89b5686899968U, 0x376779775795a869U, 0x5786788968858978U, 0xb98aa7bc79878687U,
  0x5597585688776686U, 0x97ca6a7466b88a67U, 0x665884899a97a8a7U, 0x797899a999594846U,
  0x9a9a489479baa977U, 0x89a69a85ac838966U, 0x8766878a6784b988U, 0x9377656597869879U,
  0x6896798968668768U, 0x95a85588a7b79a78U, 0x8799a99856a998aaU, 0x68b87b97773897a7U,
  0x73aa688799988886U, 0x6575559585878888U, 0x6623746568667695U, 0x687447668a558837U,
  0x989998579988a58aU, 0xa698789598999876U, 0x55a689964887aba6U, 0xa47a46aa997667a6U,
  0x6588377666968a96U, 0x6745ba7b85b49b9aU, 0x798ba68a36a97999U, 0x7846a68845668586U,
  0x6799788aaa9999aaU, 0x7797886788888888U, 0x79658a9677548665U, 0x7546866a78685569U,
  0x8987888888788898U, 0x8888888989888888U, 0x7897888888878888U, 0x8889888878878888U,
  0x897986a548a9ac98U, 0x58675964786878b7U, 0x9988a9677a857666U, 0x9968a88869655544U,
  0x8888888888888888U, 0x8888888888888888U, 0x8878878888788888U, 0x8888888878888888U,
  0x599676b6aaaa7aa8U, 0x8785538756768587U, 0x79a6aa7c98969978U, 0xaa98a7ab9a67949aU,
  0x7787788977887977U, 0xc6ab9ab965ba8b7bU, 0x96786946a6bb89a8U, 0x8a9aab96959acb7aU,
  0x7977689999675689U, 0x97ba9a9a978aa9bbU, 0x996596cb98a7899bU, 0xba9978baba8877b9U,
  0xc86b789767577798U, 0x7aa56888376686a8U, 0x9b87a77a89646899U, 0x98d9ab9a9b68689bU,
  0x8788888888888888U, 0x8888888888888888U, 0x8888888888888888U, 0x8888888888888888U,
  0x4598463657795869U, 0x369a975a66a9763bU, 0x6244366886886779U, 0xa99baa6984676476U,
  0x8888888888787888U, 0x8888888887888888U, 0x8888888889888888U, 0x8788888888888888U,
  0x9858666599995798U, 0x89777996769787a6U, 0xa69978a8ba999d96U, 0x9a4a56859a8a68a6U,
  0x8888888888888888U, 0x8888888888888888U, 0x8788888877888888U, 0x8888888888888888U,
  0x889a788b56884557U, 0xb87966a989857988U, 0x8bcc899ab99d98bbU, 0x596688998a7a8999U,
  0x6867b97947689887U, 0x7a97886aaa79887aU, 0x9a9a77897b687899U, 0x8a7886786d8665a9U,
  0x759c5886839b7699U, 0x97979b7878a96a76U, 0xa8a8779a6556b9acU, 0xa87975a8a8ab76a8U,
  0x8876658a47757857U, 0x77987878a8a9778aU, 0x799578b9668779a7U, 0x97786668bb957687U,
  0x357767866399a98aU, 0x5378468665876497U, 0x795698646849a978U, 0x7598a6898446a943U,
  0x8797a93876564688U, 0x568a869477bb7735U, 0x8a5524c4675515a7U, 0x955663686a3433caU,
  0x9a88b989a99ba7aaU, 0xa985aa6756867aa7U, 0x786566978899c978U, 0x77b988897a77a699U,
  0x5379885587896886U, 0x6b6679688a887935U, 0xa9699aa89a878b97U, 0x57abaa8d69569a9dU,
  0x8878888888888888U, 0x8888888888888888U, 0x8888888888888888U, 0x8888888888888888U,
  0xa94a985768366657U, 0xa777997799579a67U, 0x79349898a6989b67U, 0x9935566569537689U,
  0xaa6b95b99aaa6988U, 0x8aa7775a59b95977U, 0x75a959898a974876U, 0xb999566688886677U,
  0x5666aa8ba868979aU, 0xbab8ba698769bb68U, 0xa99b759ab86a96aaU, 0xa8b96976b8ac94aaU,
  0x776977888656958aU, 0x6699884a98ba996aU, 0x99986a86a8797799U, 0x766655baa969a79bU,
  0x7988b88a69886669U, 0x89a69b9a96a9a98aU, 0x6538379955867a96U, 0x96ac9876a8999b58U,
  0x8888888888888888U, 0x8788887888888878U, 0x8888888887888898U, 0x8788788888989889U,
  0x57589a568979969aU, 0x6b75897969988777U, 0x58a86a9858677976U, 0x9a6646559bb94775U,
  0x588898663666ac96U, 0x89a7aa7977aaab68U, 0x78c8bda8a94889b7U, 0x4935744765249566U,
  0xa7aa89caa9899889U, 0x9a976765b9b99aa9U, 0x893743659a8a5578U, 0xb88a779756784585U,
  0xaa687644bc7aa989U, 0x6798a997788aaa8aU, 0x88b97a8757758895U, 0x99b96a7996757689U,
  0x7a968a6388676765U, 0xb9baba49b79ab999U, 0xab9968b7cbaa947aU, 0x3a87a88999957a95U,
  0x66978a5a978a8999U, 0x9898a86778878969U, 0xa99a7b999a989889U, 0x98b9bc9c99c7ac99U,
  0x7a984696a9693798U, 0x7958868a89a85897U, 0x64555495a7a7497bU, 0x8a55a8889a4678baU,
  0x55996579568588a8U, 0x69958955669a4587U, 0x897765a976639888U, 0x74a69b6684664783U,
  0x7698879864986854U, 0x86bb9bb767986987U, 0x9488979876987997U, 0x99a999ba9888999aU,
  0x9aba6c856a678999U, 0x395476986d877b55U, 0xac8797ba794455aaU, 0x7966685449476569U,
  0x8888888888888888U, 0x8888888888888888U, 0x8888888888888888U, 0x8888888888888888U,
  0x7864999889878998U, 0x92c79a9986b4bf67U, 0x7855477694467587U, 0x7993779757653587U,
  0x67886764889a9aaaU, 0x47766a5886779696U, 0xab8b869999a98978U, 0x6889b9aa77695698U,
  0x79a8788788a8699aU, 0x8d999a8989789678U, 0x67579669aa95a569U, 0x88998698577566a7U,
  0x9745456997656564U, 0x6896ba797897775bU, 0x65566669a888ba78U, 0x767597b96ab98998U,
  0x75986997a86aa68aU, 0x996856a689655785U, 0x9a8699989b6765c9U, 0x789969697a577598U,
  0x87b7b9a88b5689a5U, 0x6984664389aaa996U, 0x879a889996887696U, 0x7987b95779a798a8U,
  0x5679a77887a68b95U, 0x9869399888695568U, 0x788949796a8a7a78U, 0x74aa9949a5798999U,
  0x565467885a566688U, 0x78685a4767866686U, 0x55a898897848897aU, 0x65d87aa765b7878aU,
  0x99aa897b6baa8897U, 0x67978696b8687974U, 0x787685a978978787U, 0x96899898856558b7U,
  0x89d9ac6686568688U, 0x8858658558755844U, 0xa9a8a9a998a695a7U, 0x48a7cc9897baab98U,
  0x3466665677697955U, 0xa849a85766889946U, 0xab986a979a759869U, 0x3464346746975899U,
  0x858899799ba989aaU, 0x6698985553647557U, 0x66a9669677ba9a97U, 0x7766a9ab485555baU,
  0xab8969a98a8867aaU, 0x5b54587a7b7567bbU, 0x964577ca6a8879a9U, 0x8a78757754689774U,
  0x895887c8a78958a8U, 0x996467776a7797b7U, 0x5786676a66666838U, 0x9889586596ac6978U,
  0x6578b98b99868834U, 0x78999a37aa998944U, 0x5a68543578699844U, 0x9a6965bc5886889aU,
  0x89555478ab59a866U, 0x6a5596ca4aa686aaU, 0x7aa97cb845686bb8U, 0x9786556976559489U,
  0x73b89c5733968998U, 0x6954764853564528U, 0xbb99977c7a66667aU, 0x7776b869bb89988aU,
  0x8888888888888888U, 0x8888888888888888U, 0x8888888888888888U, 0x8888888888888888U,
  0x9998a9977aa79884U, 0x667677579856979bU, 0x576974a8579a9799U, 0x7b567796ac5986a7U,
  0xa6aa75a852778597U, 0x7577a89a989b7698U, 0x987378a787788999U, 0x7a969a9777779895U,
  0x9879a89caa99a9abU, 0x9a59aa78ba49b758U, 0xca6ab6aa88798689U, 0x8788c97998aaaaa8U,
  0x8a56886aa874669aU, 0x7665967a8a35779aU, 0x8799657a76986b8aU, 0x6767989966586375U,
  0xaa58778a67979a67U, 0x476898688948aa8bU, 0x499a893645775543U, 0x4865577679a77879U,
  0x8777878977778789U, 0x8888888988888889U, 0x8878778988878888U, 0x7888888879778799U,
  0xab6799889a8788a9U, 0x995ab76b7934b689U, 0x766656a797798799U, 0x263496898467949aU,
  0x9a789885a97ac8aaU, 0x7a5668788b5a7788U, 0x4689ba598a78776aU, 0x68a98a9768568899U,
  0x5699966aa8cb9b9aU, 0x78a9768556678666U, 0x6886a96a57866786U, 0x7997589867588767U,
  0x8888888888888888U, 0x8888888887888888U, 0x8888888888888888U, 0x8888888888888888U,
  0x98a8aa7a98774654U, 0x969b88899899889aU, 0x64887769aaa95978U, 0xaa57738755866888U,
  0x8888888888888888U, 0x8888888888878888U, 0x8888887888888888U, 0x8878988898888888U,
  0x9b4776a78677bc98U, 0x4696967655ba7769U, 0x6a68a885877987a9U, 0xb97889999a659a79U,
  0x76b7345354b9a98aU, 0x6488757786a99a8aU, 0xa789ba8666557446U, 0xaa8aba689588ea8aU,
  0x8888888888888888U, 0x8888888888888888U, 0x8888888888888888U, 0x8888888888888888U,
  0x8897696666655895U, 0x958b5756aa999977U, 0xaa699777997a7598U, 0xa88a876599989a76U,
  0x9798a8989bcb9bbaU, 0x5377788657678855U, 0x69a7797746756466U, 0x9a899a6659775696U,
  0x9989aa56888aaa56U, 0x786876ba9a9aaa77U, 0x466766aa5759659aU, 0xaaa9559589786998U,
  0x93ba8a7a7889a99dU, 0xa8376a4497978c65U, 0xaa656a48a8576655U, 0x897577356b849a76U,
  0x4689b866688c8967U, 0x8a66777836569767U, 0x2699796757785867U, 0x9979658657887587U,
  0x78967b99ab8aa989U, 0x796897b99a98879dU, 0x67b9ab597888a988U, 0x9657868856557896U,
  0x87394375994a6487U, 0x3896674485255455U, 0x87899795869a8ab5U, 0x67897d7554889975U,
  0x9896a98a989ab97cU, 0xa89a87898663a9b8U, 0x78567589997a668aU, 0x775677aa7a8689aaU,
  0x8556765698988897U, 0x6455867966665566U, 0x786a866585877764U, 0x88497699a659a966U,
  0x8666587758755487U, 0x9886a97a97786599U, 0x7987687b9b478657U, 0x889899559c787978U,
  0x87788985799a89a9U, 0x74694372529b45a4U, 0x5b8879bb78795776U, 0x868875866abb78c6U,
  0xaa695697967877cbU, 0xab5698abc9499698U, 0xba8a5876a9894387U, 0x74ab859b798766aaU,
  0xba4366a9a899a776U, 0x98aa7a96d5486646U, 0x879a4786969b9bb8U, 0x966899885666a888U,
  0x8888888897788888U, 0x7788889886888888U, 0x8888888886888888U, 0x8888778877887788U,
  0x78a76966ba9889a9U, 0x6963889a9767a878U, 0x78979b996958a8b9U, 0x8a89987889959847U,
  0x89144776996968a8U, 0x7a645d86a9363555U, 0x66accb5a694888bbU, 0x77998b4546bbbb88U,
  0x8888888887888888U, 0x8888888888888888U, 0x9988888888888888U, 0x9988888888888888U,
  0x88587665998a9699U, 0x8a466247aa9886aaU, 0x5da76a449a585355U, 0x9b7697899cc8899aU,
  0xc48a6786c98a9863U, 0x567a899aa989a8a9U, 0x897a86897669b869U, 0x477457857b985888U,
  0x8647656833594356U, 0x967858658866a965U, 0x7997a7bc98997a7aU, 0x769399ba66469799U,
  0x69c57986aa879787U, 0x9789669677a84798U, 0x78343595a9647386U, 0x8956759869446684U,
  0xa9aa996788779868U, 0x87b99a968699a9a8U, 0x9897568954984895U, 0xa6778897a8559b94U,
  0x54b89a7886999859U, 0x8789a87988999a49U, 0x76ba488876999a87U, 0x69466676475577a7U,
  0xa995567798858aa9U, 0x97446577a9879ab7U, 0xdb8bb9aac77549a7U, 0x577995899978a687U,
  0x66a895897588a577U, 0x7797946856a67697U, 0x769aa957878a9878U, 0x68456458686a766aU,
  0x65d9ad5855997966U, 0x67779a9647bc9979U, 0xa87797c88758c887U, 0x7878b87a9a7bba8bU,
  0xab79b9ba89a889b7U, 0x979a9ab9998a99baU, 0x958887747887aa86U, 0x7aa7579785566698U,
  0x8888888888888888U, 0x8888888888888888U, 0x8888888888888888U, 0x8888888888888888U,
  0x98aa989a5486787aU, 0x585734a89a575889U, 0x79b7799666975686U, 0xa8888ac9a6657ab8U,
  0x6535796579888a88U, 0x8886999757666878U, 0xa688578577856894U, 0x2577a76753857878U,
  0x669876c88988a5aaU, 0x48a86a9a899a36aaU, 0x9ca67c995ab79b98U, 0x789888457aa58a7aU,
  0x78757668a988aa96U, 0x864473974898858aU, 0xab64a6ab89459667U, 0xbc8998a8ab77bacbU,
  0xaa888ab99a99bbbcU, 0xaaa9bb8a9a68678aU, 0x8bb986aa8679778aU, 0xb89b88c99c795798U,
  0x8888888888888888U, 0x8888888888888888U, 0x8888888888888888U, 0x8888878888888888U,
  0x8888888888888888U, 0x8888888888888888U, 0x8888888888888888U, 0x8888888888888888U,
  0x8888888888888888U, 0x8888888888888888U, 0x8888888888888888U, 0x8888888888888888U,
  0x8888888888888888U, 0x8888888888888888U, 0x8888888888888888U, 0x8888888888888888U,
  0x8888888888888888U, 0x8888888888888888U, 0x8888888888888888U, 0x8888888888888888U,
  0x8888888888888888U, 0x8888888888888888U, 0x8888888888888888U, 0x8888888888888888U,
  0x8888888788888888U, 0x8888888888888888U, 0x8888888888888888U, 0x8888888888888888U,
  0x8888888888888888U, 0x8888888888888888U, 0x8888888888888888U, 0x8888888888888888U,
  0x8888888888888888U, 0x8888888888888888U, 0x8888788888888888U, 0x8888888888888888U,
  0x8888888888888888U, 0x8888888888888888U, 0x8888888888888888U, 0x8888888888888888U,
  0x8887888888888888U, 0x8888888888888888U, 0x8888888888788888U, 0x8888888888888888U,
  0x8888888888888888U, 0x8888888888888888U, 0x8888888888888788U, 0x8888888888888888U,
  0x8888888888888888U, 0x8888888888888888U, 0x8888888888888888U, 0x8888888888888888U,
  0x8888888888888888U, 0x8888888888888888U, 0x8888888888888888U, 0x8888888888888888U,
  0x8888888888888888U, 0x8888888888888888U, 0x8888888888888888U, 0x8888888888888888U,
  0x8888888887887888U, 0x8888888888888878U, 0x8888888888888888U, 0x8888888888888888U,
  0x8888888888888888U, 0x8888888888888888U, 0x8888888888888888U, 0x8888888888888888U,
  0x8888888888888888U, 0x8888888888888888U, 0x8888888888888788U, 0x8888888888888888U,
  0x8888888888888888U, 0x8888888888888888U, 0x8888888888888888U, 0x8888888888888888U,
  0x8888888888888888U, 0x8888888888888888U, 0x8888888888888888U, 0x8888888888888888U,
  0x8888888888888888U, 0x8888888888888888U, 0x8888888888888888U, 0x8888888888888888U,
  0x8888887888888888U, 0x8888888888888888U, 0x8888888888888888U, 0x8888888888888888U,
  0x8888888888888888U, 0x8888888888888888U, 0x8888888888888888U, 0x8888888888888888U,
  0x8888888888888888U, 0x8888888888888888U, 0x8888888888888888U, 0x8888888888888888U,
  0x8888888888888888U, 0x8888888888888888U, 0x8888888888888888U, 0x8888888888888888U,
  0x8888888888888888U, 0x8888888888888888U, 0x8888888888888888U, 0x8888888888888888U,
  0x8888888888888888U, 0x8888888888888888U, 0x8888888888888888U, 0x8888888888888888U,
  0x8888888888888888U, 0x8888888888888888U, 0x8888888888888888U, 0x8888888888888888U,
  0x8888888888888888U, 0x8888888888888888U, 0x8888888888888888U, 0x8888888888888888U,
  0x8888888888888888U, 0x8888888888888888U, 0x8888888888888888U, 0x8888888888888888U,
  0x8888888888888888U, 0x8888888888888888U, 0x8888888888888888U, 0x8888888888888888U,
  0x8888888888888888U, 0x8888888888888888U, 0x8888888887888888U, 0x8888888888888888U,
  0x8888888888887888U, 0x8888888888888887U, 0x8888888888888888U, 0x8888888888888888U,
  0x8888888888888888U, 0x8888888888888888U, 0x8888888888888888U, 0x8888878888888888U,
  0x8888888788888888U, 0x8888888888888888U, 0x8888888888888888U, 0x8888888888888888U,
  0x8888888888888888U, 0x8888888888888888U, 0x8888888888888888U, 0x8888888888888888U,
  0x8888888888888888U, 0x8888888888888888U, 0x8888888888888888U, 0x8888888888888888U,
  0x8888788888888888U, 0x8888888888888888U, 0x8888888888888888U, 0x8888888888888888U,
  0x8888888888888888U, 0x8888888888888888U, 0x8888888888888888U, 0x8888888888888888U,
  0x8888888888888888U, 0x8888888878888888U, 0x8888888888888888U, 0x8888888888888888U,
  0x8888888888888888U, 0x8888888888888888U, 0x8888888888888888U, 0x8888888888888888U,
  0x8877888888888888U, 0x8888888878888888U, 0x8888888888888888U, 0x8888888888888888U,
  0x8888888888888888U, 0x8888888888888888U, 0x8888888888888888U, 0x8888888888888888U,
  0x8888888888888888U, 0x8888888888888888U, 0x8888888888888888U, 0x8888888888888888U,
  0x8888888888888888U, 0x8888888888888887U, 0x8888888888888888U, 0x8888888888888888U,
  0x8888888888888888U, 0x8888888888888888U, 0x8888888888888888U, 0x8888888888888888U,
  0x8888888888888888U, 0x8888888888888888U, 0x8888888888888888U, 0x8888888888888888U,
  0x8888888888888888U, 0x8888888888888888U, 0x8888888888888888U, 0x8888888888888888U,
  0x8888888888888888U, 0x8888888888888888U, 0x8888888888888888U, 0x8888888888888888U,
  0x8888888887888888U, 0x8888888888888888U, 0x8888888888888888U, 0x8888888888888878U,
  0x8888888888888888U, 0x8888888888888888U, 0x8888888888888888U, 0x8888888888888888U,
  0x8888888888888888U, 0x8888888888888888U, 0x8888888888888888U, 0x8888888888888888U,
  0x8888888888888888U, 0x8888888888888888U, 0x8888888888888888U, 0x8788888888888888U,
  0x8888888888888888U, 0x8888888888888888U, 0x8888888888888888U, 0x8888888888888888U,
  0x8888887878887888U, 0x8888888888888888U, 0x8888888888888888U, 0x8888888888888888U,
  0x8888888888888888U, 0x8888888888888888U, 0x8888888888888888U, 0x8888888888888888U,
  0x8888888888887788U, 0x8888888888888888U, 0x8888787888888888U, 0x8888888888888888U,
  0x8888888888878888U, 0x8888888888888888U, 0x8888888888878888U, 0x8888888888888888U,
  0x8888888888888887U, 0x8888888888888888U, 0x8888888888888888U, 0x8888888888888888U,
  0x8888888888888888U, 0x8888888888888888U, 0x8888888888888888U, 0x8888888888888888U,
  0x8888888888888888U, 0x8888888888888888U, 0x8888888888888888U, 0x8888888888888888U,
  0x8788888888888888U, 0x8888888888888888U, 0x8888888888888888U, 0x8888888888888888U,
  0x8888888888888888U, 0x8888888888888888U, 0x8887888888888888U, 0x8888888888888888U,
  0x8888888888888888U, 0x8888888888888888U, 0x8888888888888888U, 0x8888888888888888U,
  0x8888888888888888U, 0x8888888888888888U, 0x8888888888888888U, 0x8888888888888888U,
  0x8888888888888888U, 0x8888888888888888U, 0x8888888888888888U, 0x8888888888888888U,
  0x8888888888888888U, 0x8888888888888888U, 0x8888888888888888U, 0x8888888888888888U,
  0x8888888888888888U, 0x8888888888888888U, 0x8888888888888888U, 0x8888888888888888U,
  0x8888888888888888U, 0x8888888888888888U, 0x8888888888888888U, 0x8888888888888888U,
  0x8878888888888888U, 0x8888888888888888U, 0x8888888888888888U, 0x8888888888888888U,
  0x8888888888888888U, 0x8888888888888888U, 0x8888888888888888U, 0x8888888888888888U,
  0x8888888888888888U, 0x8888888888888888U, 0x8888888888888888U, 0x8888888888888888U,
  0x8888888888888888U, 0x8888888888888888U, 0x8888888888888888U, 0x8888888888888888U,
  0x8888888888888788U, 0x8888888888888888U, 0x8888888888888888U, 0x8888888888888888U,
  0x8888888888888888U, 0x8888888888888888U, 0x8888888888888888U, 0x8888888888888888U,
  0x8888878888888888U, 0x8888888888888888U, 0x8888888888888888U, 0x8888888888888888U,
  0x8888888888888888U, 0x8888888888888888U, 0x8888888888888888U, 0x8888888888888888U,
  0x8888888888888888U, 0x8888888888888888U, 0x8888888888888888U, 0x8888888888888888U,
  0x8888888888888888U, 0x8888888888888888U, 0x8888888888888888U, 0x8888888888888888U,
  0x8888888888888888U, 0x8788888888888888U, 0x8888888887888888U, 0x8888888888888888U,
  0x8888888878888888U, 0x8888888888888888U, 0x8888888888888888U, 0x8888888888888888U,
  0x8888888888888888U, 0x8888888888888888U, 0x8888888888888888U, 0x8888888888888888U,
  0x8888888888888888U, 0x8888888888888888U, 0x8888888888888888U, 0x8888888888888888U,
  0x8888888888888888U, 0x8888888888888888U, 0x8888888888888888U, 0x8888888888888888U,
  0x8888888888888888U, 0x8888888888888888U, 0x8788888888888888U, 0x8888888888888888U,
  0x8888888888888888U, 0x8888888888888888U, 0x8888888888888888U, 0x8888888888878888U,
  0x8888888888888888U, 0x8888888888888888U, 0x8888888888888888U, 0x8888888888888888U,
  0x8888888888888888U, 0x8888888888888888U, 0x8888888888888888U, 0x8888888888888888U,
  0x8888888878888888U, 0x8888888888888888U, 0x8888888888888888U, 0x8888888888888888U,
  0x8888888888888888U, 0x8888888888888888U, 0x8888888888888888U, 0x8888888888888888U,
  0x8888888888888888U, 0x8888888888888888U, 0x8888888888888888U, 0x8888888888888888U,
  0x8888888888888888U, 0x8888888888888888U, 0x8888888888888888U, 0x8888888888888888U,
  0x8888888888887878U, 0x8888888888888888U, 0x8888888888888888U, 0x8888888888888888U,
  0x8888888888888888U, 0x8888888888888888U, 0x8888888888888888U, 0x8888888888888888U,
  0x8888888888888888U, 0x8888888888888888U, 0x8888888888888888U, 0x8888888888888888U,
  0x8888888888888888U, 0x8888888888888888U, 0x8888888888888888U, 0x8888888888888888U,
  0x8888888888888888U, 0x8888888888888888U, 0x8888888888888888U, 0x8888888888888888U,
  0x8888888888888888U, 0x8888888888888888U, 0x8888888888888888U, 0x8888888888888888U,
  0x8888888888888888U, 0x8888888878888888U, 0x8888888888888888U, 0x8888888888888888U,
  0x8878888888888788U, 0x8888888888888888U, 0x8888888888888888U, 0x8888888888888888U,
  0x8888888888888888U, 0x8888888888888888U, 0x8888888888888888U, 0x8888888888888888U,
  0x8888888888888888U, 0x8888888888888888U, 0x8888888888888888U, 0x8888887888888888U,
  0x8888888888888888U, 0x8888888888888888U, 0x8888888888888888U, 0x8888888888888888U,
  0x8888888888888888U, 0x8888888888888888U, 0x8888888888888888U, 0x8888888888888888U,
  0x8888888888888888U, 0x8888888888888888U, 0x8888888888888888U, 0x8888788788888888U,
  0x8888888888888888U, 0x8888878888888888U, 0x8888888888888888U, 0x8888888888888888U,
  0x8888888888888888U, 0x8888888888888888U, 0x8888888888888888U, 0x8888888888888888U,
  0x8888888888888888U, 0x8888888888887888U, 0x8888888888888888U, 0x8888888888888888U,
  0x8888888888888888U, 0x8888888888888887U, 0x8888888887888887U, 0x8888888888888888U,
  0x8878888888888888U, 0x8888888888887888U, 0x8888888888888888U, 0x8888888888888888U,
  0x8888888888888888U, 0x8888888888888888U, 0x8888888888888888U, 0x8888888888888888U,
  0x8888888888888888U, 0x8888888888888888U, 0x8888888888888888U, 0x8888888888888888U,
  0x8888888888888888U, 0x8888888888888888U, 0x8888888888888888U, 0x8888888888888888U,
  0x8888888878888888U, 0x8888878888888888U, 0x8888888888888888U, 0x8888888888888888U,
  0x8888888888888888U, 0x8888888888888888U, 0x8888888888888888U, 0x8888888888888888U,
  0x8888788888888888U, 0x8888888888888888U, 0x8888888888888888U, 0x8888888888888888U,
  0x7788888887888888U, 0x8888888888888888U, 0x8888888888888888U, 0x8888888888888888U,
  0x8888888888888888U, 0x8888888888888888U, 0x8888888888888888U, 0x8878888888888888U,
  0x8888888888888888U, 0x8888888888888888U, 0x8888888888888888U, 0x8888888888888888U,
  0x8888888888888888U, 0x8888888888888888U, 0x8888888888888888U, 0x8888788888888888U,
  0x999775aaa667849aU, 0x7b9a7996b8696597U, 0x7875d989a959b678U, 0xb97899574676777aU,
  0x93a77aa6b9ba8a97U, 0x674397896666ab7bU, 0x766975647766b655U, 0x9578547588755563U,
  0xbcbbb88a8799a856U, 0xbc8b9789998d886aU, 0x99896799999a8a6cU, 0x699ba86789889579U,
  0x8888888888888888U, 0x8888888888888888U, 0x8888888888888888U, 0x8888888888888888U,
  0x8999aaabaa99ba9bU, 0x6498a77687b99ba6U, 0x65768a5654a7ba68U, 0x9a9898b976784597U,
  0x29a595bb7a556a68U, 0x968a69785ada77a6U, 0x9994aca5a9368498U, 0xadb9ab975aa6b666U,
  0x859aa88a75a899b9U, 0x7678746477887679U, 0x976687b8755786c7U, 0x7446869665575598U,
  0x8998a868aa98ba68U, 0xba68637779ac6865U, 0xb696bba7b858a687U, 0x778689a7987669a4U,
  0x6a9755688a557879U, 0x657867768a686565U, 0x7566877744975665U, 0x6888878887578887U,
  0x566555a6779899aaU, 0x6a55768a8c869a96U, 0xaba8688679655285U, 0x995465977986a89bU,
  0x6896b86cbbb8aa6aU, 0x4466576675a98887U, 0x987576a775664656U, 0xa8799a9aa85986aaU,
  0x769b678888977889U, 0x698a75a899986798U, 0x68b9687a9aaaba79U, 0x6578959ba7999a88U,
  0x6833647555554476U, 0x777956a656667877U, 0x793675a7879988b8U, 0x7a6757b778687886U,
  0x68968a7977867998U, 0x7877a96a86a48a59U, 0x88886b6a959aa85aU, 0x979a876a6999998bU,
  0x8b45a477778a8877U, 0x69a888958b4bb568U, 0x9789aa9786658774U, 0x66455486b8898876U,
  0x88769a9769899a78U, 0x597746989a7a7876U, 0x895897788a8b56b9U, 0x594353d899757895U,
  0x8899998888988988U, 0x8889888888898988U, 0x8888888898888888U, 0x8898898888888888U,
  0xa7879b8aa768aa88U, 0x8766aa8998979aabU, 0x587684896599977bU, 0x8876659768898b69U,
  0x8888888878888888U, 0x8888888888888888U, 0x9888888887888888U, 0x8888888888888888U,
  0x759b987876ab5664U, 0x887497586656577aU, 0x8645275677754836U, 0xa99a899869538888U,
  0x7887687677669799U, 0x6a67878a9a687579U, 0x796696989a36979bU, 0xb9ac9699cc969965U,
  0x87aa6887978b8554U, 0x6874767a8a769687U, 0xa8bb8a775a877767U, 0x78879a9896a98a88U,
  0x8955bbab6984ba9cU, 0x9739979976ab799aU, 0x544572789567a588U, 0x79999a886664a6aaU,
  0x8888888888888888U, 0x8888888888888888U, 0x8888888888888888U, 0x8888888887888888U,
  0x8a988987a7896699U, 0x8778857b78977779U, 0xab7a9889a958578bU, 0x89756698cd7a7785U,
  0x8787888889888888U, 0x8888888889888788U, 0x8888888888888888U, 0x8988888878988888U,
  0x7879989988a8aa87U, 0x4483b89867768696U, 0x7a66598665666497U, 0xb9798476987687abU,
  0x8888888888888888U, 0x8888888888888888U, 0x8888888888888888U, 0x8888888888888888U,
  0x99da99685675a889U, 0x9a769798a9a8778bU, 0x7768986779686787U, 0x86ba7a67a4ba9b98U,
  0xb97769aaba9a879bU, 0x3755756566566677U, 0x6a8958a654956755U, 0x7977a9ac7b76ba7aU,
  0x6ab988989baa5987U, 0xaa7498c4a7a76ab7U, 0x76668499669584a8U, 0x786657b7999699a8U,
  0x56678699969a7788U, 0x89778ac7996a9997U, 0x8a8c96b898cb99d7U, 0x5a74587869777998U,
  0x89998959a996786bU, 0x89aa6799a8a99c6bU, 0xc9a897ab97697697U, 0x68697857a5a9b987U,
  0x77aa4677776ab567U, 0x764856759599569aU, 0x66a8998776b4bc7bU, 0x9987787a75996b79U,
  0x78a79a89699869b6U, 0x99a86566a6aa999aU, 0xaa44746998769976U, 0x778888878a666576U,
  0xd957a6cb98787a89U, 0x9756a586986656a9U, 0x78a98b795665c768U, 0x86a9aa94777a7985U,
  0x8888888888888888U, 0x8888888888888888U, 0x8888888888888888U, 0x8888888888888888U,
  0xaa97759974866677U, 0x6857678589476396U, 0x66569a6a68456478U, 0x9b99aa897879a888U,
  0x98867569a97996bbU, 0x8a89855a7986786bU, 0xab789a67a9858736U, 0x6747469699576556U,
  0x69669c887897c978U, 0x8a5987577894979aU, 0x79a8a9688a98ab49U, 0x856569636993bb58U,
  0x78ab665599aa6889U, 0xb88b4774b95b3853U, 0xa899997ab7589968U, 0x897aaaaa5796ba7bU,
  0x98888877c6ab9879U, 0x766965a7a8564597U, 0x8578968788797979U, 0x79786587457659a7U,
  0x8888987888888889U, 0x8888899888888988U, 0x9888998888988898U, 0x8888798888998977U,
  0x786668a76866889aU, 0x6878586568564696U, 0x8999686877687855U, 0x65a8774796986955U,
  0xa6a8c75aaa98a67aU, 0x7878559686487787U, 0x96abbbbe6879b9b9U, 0x8637b875545597aaU,
  0x66aa656944944985U, 0x7746ab9888897879U, 0x69545676a86699a9U, 0x69665776aa464376U,
  0xa689a98994798777U, 0x8a5a8acba8a7689aU, 0x685756a6c85b59caU, 0x75655587b76666b4U,
  0x978897993895ca68U, 0xba9a77cbb88b75b9U, 0xa7657555a9b98bb5U, 0xa698786699896758U,
  0x5555868855b79a67U, 0x9b4785b9bd6896b6U, 0xcc7a9bc9bb4646a8U, 0x97baacbab9cbcbecU,
  0x89a9696699974669U, 0x989769766899ab67U, 0x9979a8a787969798U, 0x769958a86677b787U,
  0xa9784664b95a5687U, 0x8489639787975774U, 0x989bb9a965999899U, 0x6c88549939667577U,
  0x9b9a97aaaa989888U, 0x89b98b9b898798acU, 0x94aa7b76a6899999U, 0x8635548477ba9964U,
  0x999959678aab5798U, 0x9a76566989979668U, 0x9835539998554478U, 0x9678777a9bb9ba4cU,
  0x8888888888888888U, 0x8888888888888888U, 0x8888888888888888U, 0x8888888888888888U,
  0xa799aa7987997a87U, 0x79688aa8976a99baU, 0x6a89469878967988U, 0x8a7667678876867aU,
  0x88ba999a76777689U, 0x89989989998968a9U, 0x86997876b9798a69U, 0x866945b7b99c76a6U,
  0x664466b88986b889U, 0x8698998a94a69778U, 0x9987775745855687U, 0x985798799ab87a7aU,
  0xaa9b889ab87a9a6bU, 0xc5899b99a7886998U, 0xaa9b6595979b7878U, 0x8997899899864786U,
  0x667688499baa7987U, 0x9695858967677866U, 0x4559849775775367U, 0xa7bb9ab976355299U,
  0x797b56a996999868U, 0xab8666b7897656b7U, 0xab88aa559a589954U, 0x6a6676689b689a88U,
  0x9888988ac8a9aa79U, 0x86a996aa97aaa79aU, 0x8867497796567568U, 0x8898aa7769898668U,
  0xb9ba68aa77978a76U, 0x8896679898b69898U, 0xaa876989988a9788U, 0x5677587477785667U,
  0x8a896854ab4895a8U, 0x6777888788767686U, 0x57668897684564a5U, 0x98caccbb588799b9U,
  0x56789799999a8888U, 0xab7a6986ab9a98a9U, 0x8b684687b98a3786U, 0xabaabbbb8c76aa79U,
  0x699877459aa77846U, 0x8a8664459a8a7848U, 0x5568886686688546U, 0xaa88799688797778U,
  0x958aa77a95786778U, 0x8b65787a88997879U, 0x78ab9786ab669677U, 0x5a67a87956a89985U,
  0x88a7a78788a9ab77U, 0xa87789ab88b8aaacU, 0x68a8a999ba97c89cU, 0x7735859779995496U,
  0x8767a6789b79aa5aU, 0x769a875587a9a958U, 0x66b88b9685797786U, 0x88889954a87aad69U,
  0x5c7a76859a9baabcU, 0xc7c9790499aa5922U, 0x99777878a6ec6546U, 0x57966854aca8a879U,
  0x7888887679867679U, 0x68988a8777a7ab77U, 0xa7a579bb787678b4U, 0x9978947a58b58bb9U,
  0x795596668967b768U, 0x988a587849956878U, 0x7699ac769768aaaaU, 0x7866aa5976668877U,
  0x8888888888888888U, 0x8888888888888888U, 0x8888888888888888U, 0x8888888888888888U,
  0x68969c7a56757878U, 0xaa43a87db957778cU, 0x887a967acc87aa68U, 0x7913428584977575U,
  0x9779a787858b9889U, 0xbda9ba789ca9aa85U, 0x6997796878888a88U, 0x786577486a868759U,
  0x989977679aab98a8U, 0xa8678757b7798967U, 0x4968778799aa5787U, 0x9a7766b9898a7787U,
  0x7a67879589a88a66U, 0xa8ab88998975a677U, 0x688786976a9887abU, 0xbaaa695a89689a96U,
  0x748a9a6779999a9aU, 0xa78c9566856a9956U, 0xb6997974a8bb8888U, 0xa777a7a98896a989U,
  0x7888998888888998U, 0x9988888889889988U, 0x8888888989888889U, 0x8978888888878898U,
  0x6784969b77866879U, 0x884698797945948bU, 0x7a67976a69677889U, 0x7976548579789777U,
  0x979477a858536464U, 0x97776867a9a76887U, 0x6975a69877b95757U, 0x77689a89788b8767U,
  0x568847879869a888U, 0x99a778a8579a9699U, 0x588646a56535769aU, 0x9768a88a86578669U,
  0x8888888888888888U, 0x8888888888888888U, 0x8888888888888888U, 0x8888888888888888U,
  0xc87b46a46777a9baU, 0x7798876c6556a899U, 0x779899aaa6885587U, 0x6656a5bb42a88a99U,
  0x8888888888888888U, 0x8888888888878888U, 0x8888888888888788U, 0x8877898877888888U,
  0x9786784669986677U, 0x886b898ba64975a9U, 0x989a8734bb9a8489U, 0x7787aa677b998969U,
  0x8a9a8b8876548a77U, 0x8a48676a9b776548U, 0x987976a8a9498796U, 0x97a98ab7b79adb99U,
  0x8888888887888888U, 0x8788888888888888U, 0x8888888888888888U, 0x8787889888788888U,
  0x5988898886889899U, 0x9aa497aa4ab96a69U, 0x79999a697bb98699U, 0x9b65955a99477666U,
  0x675575549996a86aU, 0x46757a7ba797a7b9U, 0xa93794cb43798b9aU, 0xcab88b9647887875U,
  0x9699776666a788a6U, 0x7a86877999467598U, 0x693596586a7a7679U, 0x6647867a88497568U,
  0x6c876887b9aa7876U, 0x4785685ba9ab4c59U, 0x5ac8688c59a86769U, 0x4596768a64b749acU,
  0x57b9ab7999a78875U, 0x69aa8b9a65aac9aaU, 0xc898889799997676U, 0x996499cb496547a7U,
  0x9947a6bb8898a999U, 0x678b89aa89799989U, 0x85965798a88aa6baU, 0x64897857a9886499U,
  0x4974898866a7ab8bU, 0x9898a99758b688d8U, 0x868ab7b87689995aU, 0x8a6944c7a69578d8U,
  0xcc6899b669777887U, 0x896788b59b6766b6U, 0x7acaaca97aa579a6U, 0x7699a95787b8799aU,
  0xb8abba5aa78a9857U, 0x668875689687a946U, 0x895757b946778786U, 0x998988759b577785U,
  0x8946986777757888U, 0x688868598b88a767U, 0xb699685686987a99U, 0x87a799888a877938U,
  0x8a7a765878997879U, 0xbb979a97ab99a97aU, 0x9955c5ab8a579899U, 0x896aaaacc69bba9cU,
  0x883697998a68a689U, 0x7a95689698a65998U, 0x57747977966978a7U, 0xaa87aa998898a78aU,
  0x88aa8a786579a787U, 0x8566a7695875bb6bU, 0x6675957959877859U, 0x66a97667a8684756U,
  0x8788878888788888U, 0x8888888888888888U, 0x8888888888888888U, 0x8888888888887888U,
  0xaaca889a997a979bU, 0x6a99687779ca9b88U, 0x6857647659857686U, 0xab9aba6989656596U,
  0x66aba89889897775U, 0xaac9966887789868U, 0x997a62a6898c54a7U, 0xbc9bb8bcbc8866b6U,
  0x8888888888888888U, 0x7888888888888888U, 0x8888888888888888U, 0x7877888888888888U,
  0x958984ac74a9bc6bU, 0x6aa9cf9a8aaaa79bU, 0x649a779a57697888U, 0x549889585567a85aU,
  0x768b988a74ba9a79U, 0x9886a69899aa9999U, 0x447a987975a88998U, 0x65776a88a6c96ab9U,
  0x455677968a98ab99U, 0x7797968668755755U, 0x9899877966a985a8U, 0x89899889babb6988U,
  0x684667796789697cU, 0x7864aa7899759aa9U, 0x796a869c5945879aU, 0x9aa68998aa69a87aU,
  0x9767787897898798U, 0x68b95568b7875665U, 0xa89bbaab667989caU, 0x68678697698a8468U,
  0x88988878759797c6U, 0xc99a789999aa7868U, 0xdc7998c7ab7b9799U, 0xa88799ba78a9a699U,
  0x9948c9786a8a57a9U, 0x686a659a57678878U, 0x8759787849558487U, 0xbab79bbb999b9aa9U,
  0x8878787677456998U, 0x7a8568776b959a89U, 0x897665788965a878U, 0x88b9793676a9787aU,
  0x4575569724546597U, 0x9946858988899a68U, 0x8979b8ad9c67a6bbU, 0x68a9998958dbbabbU,
  0x9b76997b99676477U, 0x7768965b8776999aU, 0x9a7887787966b957U, 0x9888766788979756U,
  0x8888888888878888U, 0x8888888888888888U, 0x8888888888888888U, 0x8888888888888888U,
  0xa9a9ab7666798898U, 0xaa7a99a989bb9ba6U, 0x8a566479aa7d7666U, 0x7a7767896a97768aU,
  0x688594978886889aU, 0x88687694888899a8U, 0x9b88a79899879899U, 0x97787699a9998887U,
  0x6b5568858b877aa8U, 0x587697998a769777U, 0x9959b685696846a6U, 0x68469997887b8a99U,
  0x7aa69aa987b669aaU, 0xd88aa7b9a788877cU, 0x896774a7da8a76b9U, 0x876798bb78476397U,
  0x7776999a78865899U, 0x538675793464856aU, 0x6787a98834469877U, 0x8aa9ac9a9aa99999U,
  0x8888888888888888U, 0x8888888888888888U, 0x8888888888888888U, 0x8888888888888888U,
  0x8888888888888888U, 0x8888888888888888U, 0x8888888888888888U, 0x8888888888888888U,
  0x8888888888888888U, 0x8888888888888888U, 0x8888888888888888U, 0x8888888888888888U,
  0x8888888888888888U, 0x8888888888888888U, 0x8888888888888888U, 0x8888888888888888U,
  0x8888888888888888U, 0x8888888888888888U, 0x8888888888888888U, 0x8888888888888888U,
  0x8888888888888888U, 0x8888888888888888U, 0x8888888888888888U, 0x8888888888888888U,
  0x8888888888888888U, 0x8888888888888888U, 0x8888888888888888U, 0x8888888888888888U,
  0x8888888888888888U, 0x8888888888888888U, 0x8888888888888888U, 0x8888888888888888U,
  0x8888888888888888U, 0x8888888888888888U, 0x8888888888888888U, 0x8888888888888888U,
  0x8888888888888888U, 0x8888888888888888U, 0x8888888888888888U, 0x8888888888888888U,
  0x8888888888888888U, 0x8888888888888888U, 0x8888888888888888U, 0x8888888888888888U,
  0x8888888888888888U, 0x8888888888888888U, 0x8888888888888888U, 0x8888888888888888U,
  0x8888888888888888U, 0x8888888888888888U, 0x8888888888888888U, 0x8888888888888888U,
  0x8888888888888888U, 0x8888888888888888U, 0x8888888888888888U, 0x8888888888888888U,
  0x8888888888888888U, 0x8888888888888888U, 0x8888888888888888U, 0x8888888888888888U,
  0x8888888888888888U, 0x8888888888888888U, 0x8888888888888888U, 0x8888888888888888U,
  0x8888888888888888U, 0x8888888888888888U, 0x8888888888888888U, 0x8888888888888888U,
  0x8888888888888888U, 0x8888888888888888U, 0x8888888888888888U, 0x8888888888888888U,
  0x8888888888888888U, 0x8888888888888888U, 0x8888888888888888U, 0x8888888888888888U,
  0x8888888888888888U, 0x8888888888888888U, 0x8888888888888888U, 0x8888888888888888U,
  0x8888888888888888U, 0x8888888888888888U, 0x8888888888888888U, 0x8888888888888888U,
  0x8888888888888888U, 0x8888888888888888U, 0x8888888888888888U, 0x8888888888888888U,
  0x8888888888888888U, 0x8888888888888888U, 0x8888888888888888U, 0x8888888888888888U,
  0x8888888888888888U, 0x8888888888888888U, 0x8888888888888888U, 0x8888888888888888U,
  0x8888888888888888U, 0x8888888888888888U, 0x8888888888888888U, 0x8888888888888888U,
  0x8888888888888888U, 0x8888888888888888U, 0x8888888888888888U, 0x8888888888888888U,
  0x8888888888888888U, 0x8888888888888888U, 0x8888888888888888U, 0x8888888888888888U,
  0x8888888888888888U, 0x8888888888888888U, 0x8888888888888888U, 0x8888888888888888U,
  0x8888888888888888U, 0x8888888888888888U, 0x8888888888888888U, 0x8888888888888888U,
  0x8888888888888888U, 0x8888888888888888U, 0x8888888888888888U, 0x8888888888888888U,
  0x8888888888888888U, 0x8888888888888888U, 0x8888888888888888U, 0x8888888888888888U,
  0x8888888888888888U, 0x8888888888888888U, 0x8888888888888888U, 0x8888888888888888U,
  0x8888888888888888U, 0x8888888888888888U, 0x8888888888888888U, 0x8888888888888888U,
  0x8888888888888888U, 0x8888888888888888U, 0x8888888888888888U, 0x8888888888888888U,
  0x8888888888888888U, 0x8888888888888888U, 0x8888888888888888U, 0x8888888888888888U,
  0x8888888888888888U, 0x8888888888888888U, 0x8888888888888888U, 0x8888888888888888U,
  0x8888888888888888U, 0x8888888888888888U, 0x8888888888888888U, 0x8888888888888888U,
  0x8888888888888888U, 0x8888888888888888U, 0x8888888888888888U, 0x8888888888888888U,
  0x8888888888888888U, 0x8888888888888888U, 0x8888888888888888U, 0x8888888888888888U,
  0x8888888888888888U, 0x8888888888888888U, 0x8888888888888888U, 0x8888888888888888U,
  0x8888888888888888U, 0x8888888888888888U, 0x8888888888888888U, 0x8888888888888888U,
  0x8888888888888888U, 0x8888888888888888U, 0x8888888888888888U, 0x8888888888888888U,
  0x8888888888888888U, 0x8888888888888888U, 0x8888888888888888U, 0x8888888888888888U,
  0x8888888888888888U, 0x8888888888888888U, 0x8888888888888888U, 0x8888888888888888U,
  0x8888888888888888U, 0x8888888888888888U, 0x8888888888888888U, 0x8888888888888888U,
  0x8888888888888888U, 0x8888888888888888U, 0x8888888888888888U, 0x8888888888888888U,
  0x8888888888888888U, 0x8888888888888888U, 0x8888888888888888U, 0x8888888888888888U,
  0x8888888888888888U, 0x8888888888888888U, 0x8888888888888888U, 0x8888888888888888U,
  0x8888888888888888U, 0x8888888888888888U, 0x8888888888888888U, 0x8888888888888888U,
  0x8888888888888888U, 0x8888888888888888U, 0x8888888888888888U, 0x8888888888888888U,
  0x8888888888888888U, 0x8888888888888888U, 0x8888888888888888U, 0x8888888888888888U,
  0x8888888888888888U, 0x8888888888888888U, 0x8888888888888888U, 0x8888888888888888U,
  0x8888888888888888U, 0x8888888888888888U, 0x8888888888888888U, 0x8888888888888888U,
  0x8888888888888888U, 0x8888888888888888U, 0x8888888888888888U, 0x8888888888888888U,
  0x8888888888888888U, 0x8888888888888888U, 0x8888888888888888U, 0x8888888888888888U,
  0x8888888888888888U, 0x8888888888888888U, 0x8888888888888888U, 0x8888888888888888U,
  0x8888888888888888U, 0x8888888888888888U, 0x8888888888888888U, 0x8888888888888888U,
  0x8888888888888888U, 0x8888888888888888U, 0x8888888888888888U, 0x8888888888888888U,
  0x8888888888888888U, 0x8888888888888888U, 0x8888888888888888U, 0x8888888888888888U,
  0x8888888888888888U, 0x8888888888888888U, 0x8888888888888888U, 0x8888888888888888U,
  0x8888888888888888U, 0x8888888888888888U, 0x8888888888888888U, 0x8888888888888888U,
  0x8888888888888888U, 0x8888888888888888U, 0x8888888888888888U, 0x8888888888888888U,
  0x8888888888888888U, 0x8888888888888888U, 0x8888888888888888U, 0x8888888888888888U,
  0x8888888888888888U, 0x8888888888888888U, 0x8888888888888888U, 0x8888888888888888U,
  0x8888888888888888U, 0x8888888888888888U, 0x8888888888888888U, 0x8888888888888888U,
  0x8888888888888888U, 0x8888888888888888U, 0x8888888888888888U, 0x8888888888888888U,
  0x8888888888888888U, 0x8888888888888888U, 0x8888888888888888U, 0x8888888888888888U,
  0x8888888888888888U, 0x8888888888888888U, 0x8888888888888888U, 0x8888888888888888U,
  0x8888888888888888U, 0x8888888888888888U, 0x8888888888888888U, 0x8888888888888888U,
  0x8888888888888888U, 0x8888888888888888U, 0x8888888888888888U, 0x8888888888888888U,
  0x8888888888888888U, 0x8888888888888888U, 0x8888888888888888U, 0x8888888888888888U,
  0x8888888888888888U, 0x8888888888888888U, 0x8888888888888888U, 0x8888888888888888U,
  0x8888888888888888U, 0x8888888888888888U, 0x8888888888888888U, 0x8888888888888888U,
  0x8888888888888888U, 0x8888888888888888U, 0x8888888888888888U, 0x8888888888888888U,
  0x8888888888888888U, 0x8888888888888888U, 0x8888888888888888U, 0x8888888888888888U,
  0x8888888888888888U, 0x8888888888888888U, 0x8888888888888888U, 0x8888888888888888U,
  0x8888888888888888U, 0x8888888888888888U, 0x8888888888888888U, 0x8888888888888888U,
  0x8888888888888888U, 0x8888888888888888U, 0x8888888888888888U, 0x8888888888888888U,
  0x8888888888888888U, 0x8888888888888888U, 0x8888888888888888U, 0x8888888888888888U,
  0x8888888888888888U, 0x8888888888888888U, 0x8888888888888888U, 0x8888888888888888U,
  0x8888888888888888U, 0x8888888888888888U, 0x8888888888888888U, 0x8888888888888888U,
  0x8888888888888888U, 0x8888888888888888U, 0x8888888888888888U, 0x8888888888888888U,
  0x8888888888888888U, 0x8888888888888888U, 0x8888888888888888U, 0x8888888888888888U,
  0x8888888888888888U, 0x8888888888888888U, 0x8888888888888888U, 0x8888888888888888U,
  0x8888888888888888U, 0x8888888888888888U, 0x8888888888888888U, 0x8888888888888888U,
  0x8888888888888888U, 0x8888888888888888U, 0x8888888888888888U, 0x8888888888888888U,
  0x8888888888888888U, 0x8888888888888888U, 0x8888888888888888U, 0x8888888888888888U,
  0x8888888888888888U, 0x8888888888888888U, 0x8888888888888888U, 0x8888888888888888U,
  0x8888888888888888U, 0x8888888888888888U, 0x8888888888888888U, 0x8888888888888888U,
  0x8888888888888888U, 0x8888888888888888U, 0x8888888888888888U, 0x8888888888888888U,
  0x8888888888888888U, 0x8888888888888888U, 0x8888888888888888U, 0x8888888888888888U,
  0x8888888888888888U, 0x8888888888888888U, 0x8888888888888888U, 0x8888888888888888U,
  0x8888888888888888U, 0x8888888888888888U, 0x8888888888888888U, 0x8888888888888888U,
  0x8888888888888888U, 0x8888888888888888U, 0x8888888888888888U, 0x8888888888888888U,
  0x8888888888888888U, 0x8888888888888888U, 0x8888888888888888U, 0x8888888888888888U,
  0x8888888888888888U, 0x8888888888888888U, 0x8888888888888888U, 0x8888888888888888U,
  0x8888888888888888U, 0x8888888888888888U, 0x8888888888888888U, 0x8888888888888888U,
  0x8888888888888888U, 0x8888888888888888U, 0x8888888888888888U, 0x8888888888888888U,
  0x8888888888888888U, 0x8888888888888888U, 0x8888888888888888U, 0x8888888888888888U,
  0x8888888888888888U, 0x8888888888888888U, 0x8888888888888888U, 0x8888888888888888U,
  0x8888888888888888U, 0x8888888888888888U, 0x8888888888888888U, 0x8888888888888888U,
  0x8888888888888888U, 0x8888888888888888U, 0x8888888888888888U, 0x8888888888888888U,
  0x8888888888888888U, 0x8888888888888888U, 0x8888888888888888U, 0x8888888888888888U,
  0x8888888888888888U, 0x8888888888888888U, 0x8888888888888888U, 0x8888888888888888U,
  0x8888888888888888U, 0x8888888888888888U, 0x8888888888888888U, 0x8888888888888888U,
  0x8888888888888888U, 0x8888888888888888U, 0x8888888888888888U, 0x8888888888888888U,
  0x8888888888888888U, 0x8888888888888888U, 0x8888888888888888U, 0x8888888888888888U,
  0x8888888888888888U, 0x8888888888888888U, 0x8888888888888888U, 0x8888888888888888U,
  0x8888888888888888U, 0x8888888888888888U, 0x8888888888888888U, 0x8888888888888888U,
  0x8888888888888888U, 0x8888888888888888U, 0x8888888888888888U, 0x8888888888888888U,
  0x8888888888888888U, 0x8888888888888888U, 0x8888888888888888U, 0x8888888888888888U,
  0x8888888888888888U, 0x8888888888888888U, 0x8888888888888888U, 0x8888888888888888U,
  0x8888888888888888U, 0x8888888888888888U, 0x8888888888888888U, 0x8888888888888888U,
  0x8888888888888888U, 0x8888888888888888U, 0x8888888888888888U, 0x8888888888888888U,
  0x8888888888888888U, 0x8888888888888888U, 0x8888888888888888U, 0x8888888888888888U,
  0x8888888888888888U, 0x8888888888888888U, 0x8888888888888888U, 0x8888888888888888U,
  0x8888888888888888U, 0x8888888888888888U, 0x8888888888888888U, 0x8888888888888888U,
  0x8888888888888888U, 0x8888888888888888U, 0x8888888888888888U, 0x8888888888888888U,
  0x8888888888888888U, 0x8888888888888888U, 0x8888888888888888U, 0x8888888888888888U,
  0x8888888888888888U, 0x8888888888888888U, 0x8888888888888888U, 0x8888888888888888U,
  0x89778776769a6a84U, 0xa7a89b9c889687a8U, 0x9a85ba6ad9aac59bU, 0x88566699a79b8a67U,
  0x89898a8958677788U, 0x68b69b968968878aU, 0x4667556558a69787U, 0xa99a774375577557U,
  0x886a979ba9998769U, 0x9898575797686558U, 0xa8a979a5a9595779U, 0xab78557677656866U,
  0x8888888888888888U, 0x8888888888888888U, 0x8888888888888888U, 0x8888888888888888U,
  0x99a988a9cabaa8a9U, 0x7845578566959a88U, 0x8899ba87a8789866U, 0x9aaaaaa87768a998U,
  0x77aaa8bca67aa7a8U, 0x9b96bb8dba7b5dc6U, 0x8a666876ce998b79U, 0xb6cb7a75968a6599U,
  0x5867874797a58a78U, 0x7768996567689849U, 0x8967668677767485U, 0x45854676866a8776U,
  0xa8aa6889a8a9a979U, 0xba78949da7864897U, 0x6855a9978a4796abU, 0xa697597788579768U,
  0x3a95aaa86b869979U, 0x99997aaa879b9978U, 0xae79889b8b776778U, 0x9a6966b98c8776dbU,
  0xb8677599887878b9U, 0x45113344b9455577U, 0xb9aaaa9a86b86854U, 0x76777898799ba96aU,
  0x9785267775dacb59U, 0x99899799b997a9a8U, 0x7899b96b688685a9U, 0x5655558567679867U,
  0x869876aa77999999U, 0xa589859b73777799U, 0xa6a9cc9896c99cabU, 0x88a887a9a599ab9aU,
  0x8b56a6ba86568698U, 0x4644467668567687U, 0x6734556546246334U, 0xa7b76d878b8887b7U,
  0x679667a7898889b7U, 0x6655577956786668U, 0x5795568998968967U, 0xb88666a756563294U,
  0x85ba898779878597U, 0xb7bc6ba5687a7b89U, 0x8b74aa7b789789a8U, 0x88aa9a878a89ca9aU,
  0x6796a86868876965U, 0x796aa9c9566a7996U, 0xab895767ab687679U, 0x7888a8a898776555U,
  0x9888998888788887U, 0x8888888888888888U, 0x8797888887989888U, 0x8899888877888988U,
  0x6a8a6449ab585684U, 0x89989c9a8b677978U, 0xa9abb8a8a9ab789bU, 0x68755784b89b78a5U,
  0x9888888988898989U, 0x8888888888888888U, 0x8888888888888888U, 0x8788888888888888U,
  0x777657a7abab7878U, 0x999856b9667575bbU, 0x7a9878ab9b7a55aaU, 0x88886966996a88aaU,
  0xa867a87989578788U, 0x75885997859965a9U, 0x99996798a75866a7U, 0x9999788889aa6766U,
  0x57788979a8979898U, 0xaa9a7a879d567969U, 0xa6a95a9789687987U, 0x9a9997aa67a98b89U,
  0x6749c76733848955U, 0x758a36a788a75689U, 0x89aaa99a9a998989U, 0x898888777688689bU,
  0x8888888888888888U, 0x8888888888888888U, 0x8888888889888888U, 0x8888888889888988U,
  0x7641a68957438477U, 0x64b8aa4864757776U, 0xb997658a95857977U, 0x689898a8abba86baU,
  0x8988888889778788U, 0x8988888889888788U, 0x9788888897888888U, 0x9988888889788888U,
  0x8aa69699bb9a9b8aU, 0xaa89867aaa98b47cU, 0x9ab98c9989858985U, 0x5865877977999999U,
  0x8888888888888888U, 0x8888888888888888U, 0x8888888888888888U, 0x8888888888888888U,
  0xa9bbaa76ba8b9aacU, 0xa87a9798a99aba98U, 0x86668968977a898aU, 0x96779846b7857686U,
  0x57458799a978988aU, 0x78588965898a5696U, 0x898976c866754a86U, 0x96aba999b9ac9967U,
  0x558655966b484495U, 0x4867958b28848999U, 0xa5696647948a9769U, 0x97ab89baa7776587U,
  0x767a785578997783U, 0x58798a7869ba9969U, 0x9aabad9a8669a99aU, 0xba8776a978988988U,
  0x4875766a895577b9U, 0xa498767885b8986aU, 0x7859a74795269547U, 0x6857448a7c2974aaU,
  0xa8969a7769997885U, 0x6a9587cc879597a7U, 0x898468987a5769caU, 0xa76ba79c88796589U,
  0x69a97958998a7748U, 0x79696955a77a6767U, 0x9b76665885788756U, 0x69997a764b448565U,
  0x7a5787849a6797a8U, 0x98b9a985899aa977U, 0x879aaa96a678bc89U, 0x77baa97b9849aa9aU,
  0x8888888888888888U, 0x8888887788888888U, 0x8888888788888887U, 0x8888888888888888U,
  0xa7aa777787775985U, 0x8b96779899877799U, 0x9979abbb87877697U, 0xab98bb977897bbaaU,
  0x98776897797666a9U, 0x58696786698a6789U, 0xb87645769a794758U, 0x7967975899557678U,
  0x9aa879649a755698U, 0x7c9989a8997a7a67U, 0x767876988b99a897U, 0x887767776897a667U,
  0xaa9999bb87a888aaU, 0x97c899aaa9a997b9U, 0x6966a8bca8888a9cU, 0x6a7588aa6a56a79aU,
  0x78899b7888a967a8U, 0x78a8956777ba8a67U, 0x585576a75b647669U, 0x664566a8665677a7U,
  0x8888888888888898U, 0x8888887888878888U, 0x8887888887888888U, 0x8888779888888788U,
  0x6b76aa5b9a689545U, 0x8866a67988869779U, 0xaa6a959a8976985aU, 0x8999988b8866a779U,
  0x69898888586776ccU, 0x9795a79a9878a999U, 0x687565b75696a8a7U, 0x97a88ac7976998baU,
  0x7755866a7868a788U, 0x7948747956575757U, 0x89a9567469a74787U, 0x86aaac9a87abaaa7U,
  0x968765588599a899U, 0xa67879988788777aU, 0xba8a69b9898b78c9U, 0x9988859aaaa7a999U,
  0x9866ba8878566689U, 0x8689999987798688U, 0xa98889599879aa68U, 0x89ba989a86586868U,
  0x4562387556667568U, 0x6a988a7569649976U, 0x9889788978889779U, 0xb67788a766987897U,
  0x859785a788ab8586U, 0x9a59659686656587U, 0x889ad96598b9a975U, 0x7aa9aa6a78ca7c77U,
  0x47a87698899779a9U, 0x86968677545646a8U, 0xb889988a99a7aa79U, 0x96896799979b8889U,
  0x67799798979889a8U, 0xa9daaaaa57a88a99U, 0xa97baa79baacaa9aU, 0x8866556787875767U,
  0x68976a7998a955b8U, 0xaa999a988b967795U, 0x987779869a8a7876U, 0x598768b557b85677U,
